<unk>	0
<s>	0
</s>	0
▁=	-3.39185
▁}	-4.00273
▁{	-4.02575
▁```	-4.47745
▁int	-5.02479
▁//	-5.15079
▁+	-5.27673
▁if	-5.40491
▁public	-5.42004
▁new	-5.42326
▁return	-5.49501
▁void	-5.51776
▁$$$	-5.51953
▁:	-5.58455
▁0;	-5.62904
▁어떻게	-5.63499
▁==	-5.63599
▁i	-5.70399
▁import	-5.70719
▁for	-5.72228
▁<<	-5.82511
▁in	-6.01104
▁수	-6.02859
▁0	-6.03302
▁String	-6.10043
▁class	-6.13428
▁<	-6.14086
▁*	-6.19163
▁var	-6.23238
▁else	-6.27864
▁제가	-6.27864
▁있는	-6.30941
▁1,	-6.31922
▁이	-6.33113
▁-	-6.395
▁static	-6.43405
▁""	-6.43627
▁private	-6.43849
▁|	-6.47239
▁def	-6.53647
▁#	-6.55877
▁이렇게	-6.5919
▁>	-6.61284
▁",3	-6.61549
▁a	-6.61549
▁at	-6.61549
▁the	-6.63423
▁방법이	-6.65333
▁코드를	-6.65333
▁});	-6.6728
▁잘	-6.6841
▁왜	-6.69553
▁1	-6.7013
▁같은	-6.72469
▁$$$에서	-6.7426
▁i++)	-6.75168
▁다른	-6.75472
▁};	-6.76391
▁break;	-6.77008
▁값을	-6.77318
▁case	-6.77629
▁!=	-6.81439
▁#include	-6.82742
▁",5	-6.86076
▁있습니다.	-6.86076
▁하는	-6.86076
▁그	-6.86416
▁때	-6.86416
▁3,	-6.86756
▁1;	-6.87785
▁5,	-6.92372
▁이런	-6.92372
▁어떤	-6.93461
▁4,	-6.93826
▁[1]:	-6.93826
▁while	-6.94193
▁is	-6.96049
▁(int	-6.96424
▁from	-6.96424
▁char	-6.96801
▁6,	-6.98321
▁같이	-6.98705
▁/	-6.99091
▁cout	-7.00647
▁to	-7.01435
▁&&	-7.03431
▁것	-7.03431
▁2,	-7.07968
▁하면	-7.08815
▁에러가	-7.09241
▁합니다.	-7.09241
▁+=	-7.11401
▁싶습니다.	-7.12279
▁",4	-7.14056
▁function	-7.14957
▁@Override	-7.1771
▁질문	-7.1771
▁하고	-7.1771
▁of	-7.19115
▁,	-7.21986
▁0,	-7.22473
▁j	-7.22473
▁할	-7.23453
▁"");	-7.23947
▁데이터를	-7.26962
▁and	-7.27474
▁오류가	-7.30071
▁값이	-7.31129
▁-1,	-7.31663
▁},	-7.31663
▁그리고	-7.35478
▁더	-7.36595
▁및	-7.37159
▁||	-7.38295
▁하는데	-7.40024
▁를	-7.41194
▁문제가	-7.41784
▁e)	-7.42377
▁0)	-7.42974
▁1.	-7.42974
▁다시	-7.42974
▁싶은데	-7.42974
▁double	-7.43575
▁있을까요?	-7.43575
▁현재	-7.43575
▁경우	-7.44787
▁그런데	-7.46014
▁not	-7.46633
▁만들고	-7.46633
▁문제	-7.46633
▁2	-7.47256
▁line	-7.47256
▁endl;	-7.47883
▁해당	-7.47883
▁계속	-7.48514
▁함수를	-7.48514
▁해야	-7.48514
▁for(int	-7.49149
▁모르겠습니다.	-7.49788
▁",2	-7.50431
▁3	-7.50431
▁result	-7.50431
▁함수	-7.50431
▁혹시	-7.50431
▁<div	-7.51078
▁파일을	-7.5173
▁elif	-7.52385
▁name	-7.54379
▁여기서	-7.54379
▁이런식으로	-7.54379
▁로	-7.55052
▁있는데	-7.55052
▁2.	-7.5573
▁x	-7.5573
▁알고	-7.571
▁...,	-7.58489
▁한	-7.58489
▁![이미지][1]	-7.59191
▁다	-7.59191
▁catch	-7.61326
▁)	-7.62048
▁try	-7.62048
▁ᅲᅲ	-7.62048
▁중	-7.62048
▁에서	-7.62775
▁코드는	-7.62775
▁안에	-7.63508
▁...	-7.65739
▁const	-7.66493
▁프로그램을	-7.66493
▁main()	-7.68792
▁대한	-7.68792
▁위	-7.68792
▁저는	-7.68792
▁제	-7.68792
▁string	-7.6957
▁File	-7.70355
▁[	-7.70355
▁as	-7.70355
▁코드	-7.70355
▁/>	-7.71145
▁두	-7.71942
▁1],	-7.72745
▁main(String[]	-7.72745
▁방법을	-7.72745
▁아래와	-7.73555
▁->	-7.75194
▁extends	-7.75194
▁좀	-7.75194
▁입력	-7.76024
▁[]	-7.76861
▁클래스	-7.76861
▁b	-7.77705
▁데이터	-7.77705
▁\	-7.78556
▁<=	-7.79415
▁[1,	-7.79415
▁있나요?	-7.79415
▁</div>	-7.8028
▁print	-7.8028
▁1)	-7.81154
▁>>	-7.81154
▁final	-7.81154
▁궁금합니다.	-7.81154
▁후	-7.81154
▁특정	-7.82035
▁출력	-7.8382
▁파일	-7.8382
▁그냥	-7.84725
▁관련	-7.85639
▁배열을	-7.85639
▁아니면	-7.85639
▁입니다.	-7.85639
▁data	-7.8656
▁위의	-7.87491
▁웹	-7.8843
▁이용해서	-7.8843
▁좋은	-7.8843
▁else:	-7.89377
▁<script	-7.90334
▁or	-7.90334
▁같습니다.	-7.90334
▁실행환경	-7.90334
▁안	-7.91301
▁있는지	-7.91301
▁",1	-7.92276
▁%	-7.92276
▁(i	-7.92276
▁null;	-7.92276
▁(	-7.93261
▁다음과	-7.93261
▁배열	-7.93261
▁#define	-7.94256
▁n	-7.94256
▁모든	-7.94256
▁?	-7.95262
▁args)	-7.95262
▁그래서	-7.95262
▁가장	-7.96277
▁버튼을	-7.96277
▁각	-7.97302
▁변수	-7.97302
▁않습니다.	-7.97302
▁같은데	-7.98339
▁대해	-7.98339
▁*/	-7.99386
▁using	-7.99386
▁않고	-7.99386
▁을	-7.99386
▁있으면	-7.99386
▁가	-8.00444
▁리스트	-8.00444
▁방법	-8.00444
▁부분이	-8.00444
▁이해가	-8.00444
▁코드가	-8.00444
▁방법은	-8.01514
▁A	-8.02595
▁with	-8.02595
▁기능을	-8.02595
▁와	-8.02595
▁통해	-8.02595
▁.	-8.03688
▁아래	-8.03688
▁예를	-8.04793
▁struct	-8.0591
▁>=	-8.0704
▁false;	-8.0704
▁public:	-8.0704
▁근데	-8.0704
▁바로	-8.0704
▁사용하여	-8.0704
▁안드로이드	-8.0704
▁문자열을	-8.08183
▁에	-8.08183
▁4	-8.09339
▁y	-8.09339
▁너무	-8.09339
▁모두	-8.09339
▁아닌	-8.09339
▁method	-8.10508
▁실행	-8.10508
▁'	-8.11692
▁<input	-8.11692
▁i;	-8.11692
▁값	-8.11692
▁객체를	-8.11692
▁것이	-8.11692
▁되는데	-8.11692
▁원하는	-8.11692
▁html	-8.12889
▁input	-8.12889
▁5	-8.14102
▁다음	-8.14102
▁라는	-8.14102
▁아니라	-8.14102
▁건가요?	-8.15329
▁이게	-8.15329
▁코드에서	-8.15329
▁-->	-8.16571
▁│	-8.16571
▁따로	-8.16571
▁문자열	-8.16571
▁의	-8.16571
▁number	-8.17829
▁누르면	-8.17829
▁);	-8.19103
▁<stdio.h>	-8.19103
▁[2,	-8.19103
▁boolean	-8.19103
▁return;	-8.19103
▁각각	-8.19103
▁PORTA_REG.bit1	-8.20393
▁또	-8.20393
▁생성	-8.20393
▁제대로	-8.20393
▁c	-8.217
▁count	-8.217
▁node	-8.217
▁무슨	-8.217
▁배열의	-8.217
▁위해	-8.217
▁2],	-8.23025
▁$$$로	-8.24367
▁&	-8.24367
▁2)	-8.24367
▁2;	-8.24367
▁<a	-8.24367
▁e.printStackTrace();	-8.24367
▁많이	-8.24367
▁쓰는	-8.24367
▁이미지	-8.24367
▁질문드립니다.	-8.24367
▁625ns	-8.25728
▁j++)	-8.25728
▁list	-8.25728
▁되는	-8.25728
▁뭐가	-8.25728
▁이용하여	-8.25728
▁=>	-8.27107
▁[2]:	-8.27107
▁true;	-8.27107
▁때문에	-8.27107
▁부분을	-8.27107
▁저	-8.27107
▁출력하는	-8.27107
▁###발생하는	-8.28506
▁3.	-8.28506
▁i++){	-8.28506
▁됩니다.	-8.28506
▁정보를	-8.28506
▁;	-8.29924
▁<option	-8.29924
▁float	-8.29924
▁num	-8.29924
▁없는	-8.29924
▁여러	-8.29924
▁으로	-8.29924
▁일단	-8.29924
▁있어서	-8.29924
▁해서	-8.29924
▁NULL)	-8.31363
▁typedef	-8.31363
▁간단한	-8.31363
▁클래스를	-8.31363
▁"",	-8.32823
▁NULL;	-8.32823
▁be	-8.32823
▁i=0;	-8.32823
▁변수를	-8.32823
▁되지	-8.34304
▁때,	-8.34304
▁만들어	-8.34304
▁사용해서	-8.34304
▁초기화	-8.34304
▁함수가	-8.34304
▁###소스코드	-8.35808
▁결과	-8.35808
▁식으로	-8.35808
▁질문을	-8.35808
▁"";	-8.37335
▁INFO	-8.37335
▁value	-8.37335
▁들어	-8.37335
▁이걸	-8.37335
▁이유가	-8.37335
▁지금	-8.37335
▁차이가	-8.37335
▁클래스의	-8.37335
▁/*	-8.38885
▁<!--	-8.38885
▁<iostream>	-8.38885
▁null)	-8.38885
▁protected	-8.38885
▁결과가	-8.38885
▁숫자를	-8.38885
▁시	-8.38885
▁오류	-8.38885
▁코드입니다.	-8.38885
▁1);	-8.4046
▁것은	-8.4046
▁것을	-8.4046
▁데이터가	-8.4046
▁사용	-8.4046
▁사용하는	-8.4046
▁저장	-8.4046
▁file	-8.4206
▁있을	-8.4206
▁namespace	-8.43686
▁url	-8.43686
▁user	-8.43686
▁내용을	-8.43686
▁마지막	-8.43686
▁보면	-8.43686
▁써서	-8.43686
▁error	-8.45339
▁게	-8.45339
▁답변	-8.45339
▁사용하고	-8.45339
▁알려주시면	-8.45339
▁에러	-8.45339
▁위와	-8.45339
▁정상적으로	-8.45339
▁![이미지][2]	-8.4702
▁125+	-8.4702
▁500ns	-8.4702
▁</tr>	-8.4702
▁Scanner	-8.4702
▁gyp	-8.4702
▁on	-8.4702
▁그대로	-8.4702
▁따라	-8.4702
▁문제를	-8.4702
▁텍스트	-8.4702
▁하지만	-8.4702
▁Scanner(System.in);	-8.48729
▁]	-8.48729
▁call	-8.48729
▁객체	-8.48729
▁도움	-8.48729
▁방식으로	-8.48729
▁처음	-8.48729
▁추가	-8.48729
▁프로그램	-8.48729
▁하는지	-8.48729
▁했는데	-8.48729
▁$$$를	-8.50468
▁node.js	-8.50468
▁null	-8.50468
▁나옵니다.	-8.50468
▁메소드를	-8.50468
▁실행이	-8.50468
▁자꾸	-8.50468
▁출력이	-8.50468
▁Button	-8.52238
▁String[]	-8.52238
▁id	-8.52238
▁main(void)	-8.52238
▁p	-8.52238
▁문제는	-8.52238
▁버튼	-8.52238
▁숫자	-8.52238
▁하나의	-8.52238
▁%>	-8.5404
▁</script>	-8.5404
▁type	-8.5404
▁아래는	-8.5404
▁10	-8.55875
▁package	-8.55875
▁start	-8.55875
▁std;	-8.55875
▁만드는	-8.55875
▁받은	-8.55875
▁배열에	-8.55875
▁부탁드립니다.	-8.55875
▁새로운	-8.55875
▁수가	-8.55875
▁없을까요?	-8.55875
▁없이	-8.55875
▁하나요?	-8.55875
▁할지	-8.55875
▁[4,	-8.57744
▁cin	-8.57744
▁때는	-8.57744
▁알	-8.57744
▁정말	-8.57744
▁""####################"",	-8.59649
▁end	-8.59649
▁it	-8.59649
▁unsigned	-8.59649
▁만약	-8.59649
▁설정	-8.59649
▁이건	-8.59649
▁저장하는	-8.59649
▁총	-8.59649
▁포인터	-8.59649
▁<tr>	-8.61591
▁has	-8.61591
▁리스트를	-8.61591
▁위에	-8.61591
▁있는데요.	-8.61591
▁있다고	-8.61591
▁중에	-8.61591
▁직접	-8.61591
▁처럼	-8.61591
▁int[]	-8.63571
▁})	-8.63571
▁가지고	-8.63571
▁나오는데	-8.63571
▁된	-8.63571
▁드립니다.	-8.63571
▁라고	-8.63571
▁먼저	-8.63571
▁수를	-8.63571
▁실행하면	-8.63571
▁위한	-8.63571
▁하려고	-8.63571
▁```",5	-8.65592
▁n;	-8.65592
▁random	-8.65592
▁switch	-8.65592
▁x,	-8.65592
▁만든	-8.65592
▁사용할	-8.65592
▁주소를	-8.65592
▁페이지	-8.65592
▁<td	-8.67653
▁[3,	-8.67653
▁```",3	-8.67653
▁info	-8.67653
▁object	-8.67653
▁sql	-8.67653
▁temp	-8.67653
▁감사하겠습니다.	-8.67653
▁대해서	-8.67653
▁번째	-8.67653
▁않는	-8.67653
▁이벤트	-8.67653
▁있고	-8.67653
▁출력하고	-8.67653
▁파일로	-8.67653
▁>>>	-8.69759
▁[$$$]	-8.69759
▁long	-8.69759
▁name,	-8.69759
▁page	-8.69759
▁throws	-8.69759
▁{}	-8.69759
▁받아서	-8.69759
▁부분에서	-8.69759
▁중입니다.	-8.69759
▁하나	-8.69759
▁항상	-8.69759
▁31-Jul-2019	-8.71909
▁6	-8.71909
▁[5,	-8.71909
▁[main]	-8.71909
▁s	-8.71909
▁this	-8.71909
▁나오는	-8.71909
▁만들어서	-8.71909
▁쓰고	-8.71909
▁없습니다.	-8.71909
▁이용해	-8.71909
▁$$$을	-8.74107
▁TODO	-8.74107
▁k	-8.74107
▁size	-8.74107
▁}else	-8.74107
▁도와주세요	-8.74107
▁뭔가요?	-8.74107
▁있는데,	-8.74107
▁자동으로	-8.74107
▁파일이	-8.74107
▁혹은	-8.74107
▁3],	-8.76355
▁Exception	-8.76355
▁[-1,	-8.76355
▁implements	-8.76355
▁text	-8.76355
▁로그인	-8.76355
▁바꾸는	-8.76355
▁발생합니다.	-8.76355
▁부분	-8.76355
▁쓸	-8.76355
▁처리	-8.76355
▁첫번째	-8.76355
▁""\n"";	-8.78654
▁-1],	-8.78654
▁Auto-generated	-8.78654
▁NODE	-8.78654
▁a,	-8.78654
▁by	-8.78654
▁global	-8.78654
▁json	-8.78654
▁li	-8.78654
▁type=""text""	-8.78654
▁개발	-8.78654
▁글을	-8.78654
▁뒤에	-8.78654
▁또는	-8.78654
▁쓰면	-8.78654
▁않은	-8.78654
▁이용한	-8.78654
▁입력한	-8.78654
▁저렇게	-8.78654
▁조언	-8.78654
▁첫	-8.78654
▁큰	-8.78654
▁테스트	-8.78654
▁"")	-8.81007
▁%d	-8.81007
▁</body>	-8.81007
▁B	-8.81007
▁Error	-8.81007
▁item	-8.81007
▁y;	-8.81007
▁}else{	-8.81007
▁ᅮᅮ	-8.81007
▁감사합니다.	-8.81007
▁것입니다.	-8.81007
▁경우는	-8.81007
▁될	-8.81007
▁보통	-8.81007
▁여기에	-8.81007
▁원소를	-8.81007
▁전부	-8.81007
▁통해서	-8.81007
▁형태로	-8.81007
▁"""";	-8.83416
▁$$$의	-8.83416
▁3;	-8.83416
▁7,	-8.83416
▁8,	-8.83416
▁</li>	-8.83416
▁key	-8.83416
▁감이	-8.83416
▁구현	-8.83416
▁뜨는데	-8.83416
▁메소드	-8.83416
▁순서대로	-8.83416
▁입력하면	-8.83416
▁함수는	-8.83416
▁-1	-8.85886
▁100	-8.85886
▁1]	-8.85886
▁4],	-8.85886
▁BufferedReader	-8.85886
▁True:	-8.85886
▁printf(""\n"");	-8.85886
▁your	-8.85886
▁동시에	-8.85886
▁뜹니다.	-8.85886
▁부분은	-8.85886
▁사용자	-8.85886
▁소스	-8.85886
▁이미지를	-8.85886
▁주시면	-8.85886
▁질문이	-8.85886
▁파일의	-8.85886
▁했습니다.	-8.85886
▁0);	-8.88417
▁6],	-8.88417
▁byte[]	-8.88417
▁char*	-8.88417
▁private:	-8.88417
▁sum	-8.88417
▁ᅲ	-8.88417
▁나오게	-8.88417
▁도저히	-8.88417
▁만들	-8.88417
▁밑에	-8.88417
▁방법으로	-8.88417
▁서버	-8.88417
▁아직	-8.88417
▁위해서	-8.88417
▁이러한	-8.88417
▁이를	-8.88417
▁이름을	-8.88417
▁저장하고	-8.88417
▁파일에	-8.88417
▁화면에	-8.88417
▁')	-8.91015
▁(Exception	-8.91015
▁-1)	-8.91015
▁7	-8.91015
▁O	-8.91015
▁^	-8.91015
▁code	-8.91015
▁else{	-8.91015
▁for(i	-8.91015
▁num;	-8.91015
▁time	-8.91015
▁true	-8.91015
▁값은	-8.91015
▁서버를	-8.91015
▁쉽게	-8.91015
▁이라는	-8.91015
▁페이지를	-8.91015
▁(1)	-8.93682
▁0:	-8.93682
▁<%@	-8.93682
▁<module>	-8.93682
▁NULL,	-8.93682
▁Node	-8.93682
▁for(var	-8.93682
▁select	-8.93682
▁건	-8.93682
▁공부하고	-8.93682
▁모듈을	-8.93682
▁소켓	-8.93682
▁숫자가	-8.93682
▁아무리	-8.93682
▁우선	-8.93682
▁잘못된	-8.93682
▁전체	-8.93682
▁지	-8.93682
▁//1.625+0.125	-8.96422
▁1.625us	-8.96422
▁1us	-8.96422
▁5],	-8.96422
▁<body>	-8.96422
▁<li><a	-8.96422
▁<script>	-8.96422
▁=1.750us	-8.96422
▁View	-8.96422
▁[6,	-8.96422
▁an	-8.96422
▁function(){	-8.96422
▁i,	-8.96422
▁index	-8.96422
▁name;	-8.96422
▁recent	-8.96422
▁request	-8.96422
▁solid	-8.96422
▁str	-8.96422
▁stub	-8.96422
▁type:	-8.96422
▁기능	-8.96422
▁는	-8.96422
▁되나요?	-8.96422
▁두번째	-8.96422
▁말고	-8.96422
▁변수에	-8.96422
▁보고	-8.96422
▁생성자	-8.96422
▁생성자를	-8.96422
▁아래의	-8.96422
▁아무	-8.96422
▁올립니다.	-8.96422
▁이미	-8.96422
▁종료	-8.96422
▁코드로	-8.96422
▁하려면	-8.96422
▁####소스코드	-8.99239
▁(most	-8.99239
▁1:	-8.99239
▁<stdlib.h>	-8.99239
▁The	-8.99239
▁are	-8.99239
▁break	-8.99239
▁data;	-8.99239
▁exception	-8.99239
▁f	-8.99239
▁t	-8.99239
▁내용이	-8.99239
▁등	-8.99239
▁맨	-8.99239
▁문자를	-8.99239
▁받는	-8.99239
▁사용자가	-8.99239
▁싶은	-8.99239
▁컴파일	-8.99239
▁호출	-8.99239
▁'R',	-9.02137
▁'S',	-9.02137
▁-=	-9.02137
▁Traceback	-9.02137
▁db	-9.02137
▁delete	-9.02137
▁length	-9.02137
▁nested	-9.02137
▁pass	-9.02137
▁table	-9.02137
▁y)	-9.02137
▁경우에는	-9.02137
▁궁금한	-9.02137
▁둘	-9.02137
▁메모리	-9.02137
▁보니	-9.02137
▁알려주세요	-9.02137
▁원래	-9.02137
▁있다면	-9.02137
▁함수의	-9.02137
▁형식으로	-9.02137
▁%d\n"",	-9.05123
▁()	-9.05123
▁..	-9.05123
▁<br>	-9.05123
▁<meta	-9.05123
▁<property	-9.05123
▁args	-9.05123
▁int*	-9.05123
▁last):	-9.05123
▁std::cout	-9.05123
▁test	-9.05123
▁객체가	-9.05123
▁많은	-9.05123
▁문자열이	-9.05123
▁뭘	-9.05123
▁서로	-9.05123
▁소스를	-9.05123
▁써야	-9.05123
▁윈도우	-9.05123
▁이름	-9.05123
▁이유는	-9.05123
▁인자로	-9.05123
▁일반	-9.05123
▁입력을	-9.05123
▁자식	-9.05123
▁코딩을	-9.05123
▁하여	-9.05123
▁한번에	-9.05123
▁(stu	-9.082
▁5;	-9.082
▁9	-9.082
▁<head>	-9.082
▁FROM	-9.082
▁PORTA_REG.bit0	-9.082
▁Toast.LENGTH_SHORT).show();	-9.082
▁bool	-9.082
▁div	-9.082
▁output	-9.082
▁spawn	-9.082
▁temp;	-9.082
▁where	-9.082
▁you	-9.082
▁과	-9.082
▁뭔가	-9.082
▁변수가	-9.082
▁서버에서	-9.082
▁앞에	-9.082
▁어느	-9.082
▁어디가	-9.082
▁크기를	-9.082
▁학생입니다.	-9.082
▁해도	-9.082
▁$$$.util.Scanner;	-9.11375
▁$$$에서는	-9.11375
▁-1;	-9.11375
▁/**	-9.11375
▁10,	-9.11375
▁8	-9.11375
▁</head>	-9.11375
▁Point	-9.11375
▁android:layout_width=""match_parent""	-9.11375
▁form	-9.11375
▁for문	-9.11375
▁for문을	-9.11375
▁i)	-9.11375
▁scanf(""%d"",	-9.11375
▁true,	-9.11375
▁x;	-9.11375
▁각각의	-9.11375
▁그럼	-9.11375
▁동일한	-9.11375
▁되어	-9.11375
▁똑같이	-9.11375
▁라이브러리	-9.11375
▁안의	-9.11375
▁않아서	-9.11375
▁위치	-9.11375
▁저장된	-9.11375
▁차이점이	-9.11375
▁해봤는데	-9.11375
▁확인	-9.11375
▁##	-9.14654
▁'D',	-9.14654
▁3)	-9.14654
▁<%	-9.14654
▁BufferedReader(new	-9.14654
▁TypeError:	-9.14654
▁__name__	-9.14654
▁app	-9.14654
▁find	-9.14654
▁function(err,	-9.14654
▁range(1,	-9.14654
▁response	-9.14654
▁server	-9.14654
▁가진	-9.14654
▁값으로	-9.14654
▁건지	-9.14654
▁검색	-9.14654
▁그런	-9.14654
▁도움을	-9.14654
▁되면	-9.14654
▁두개의	-9.14654
▁모르겠네요	-9.14654
▁못	-9.14654
▁바꾸고	-9.14654
▁발생하는	-9.14654
▁예를들어	-9.14654
▁이유를	-9.14654
▁전에	-9.14654
▁정수	-9.14654
▁정확히	-9.14654
▁코드의	-9.14654
▁클래스가	-9.14654
▁클래스에서	-9.14654
▁할까요?	-9.14654
▁해결할	-9.14654
▁후에	-9.14654
▁"$$$	-9.18044
▁$$$으로	-9.18044
▁'E',	-9.18044
▁'P',	-9.18044
▁2:	-9.18044
▁9,	-9.18044
▁<!DOCTYPE	-9.18044
▁</html>	-9.18044
▁</ul>	-9.18044
▁JLabel	-9.18044
▁N	-9.18044
▁a;	-9.18044
▁do	-9.18044
▁express	-9.18044
▁false	-9.18044
▁my	-9.18044
▁org.apache.catalina.startup.VersionLoggerListener.log	-9.18044
▁r	-9.18044
▁savedInstanceState)	-9.18044
▁that	-9.18044
▁{%	-9.18044
▁|=	-9.18044
▁결과를	-9.18044
▁공부를	-9.18044
▁관한	-9.18044
▁되었습니다.	-9.18044
▁될까요?	-9.18044
▁메소드가	-9.18044
▁메인	-9.18044
▁무엇이	-9.18044
▁받아	-9.18044
▁번	-9.18044
▁분	-9.18044
▁안됩니다.	-9.18044
▁안에서	-9.18044
▁알고리즘	-9.18044
▁어디에	-9.18044
▁없다고	-9.18044
▁없어서	-9.18044
▁예제	-9.18044
▁저장이	-9.18044
▁출력됩니다.	-9.18044
▁하는데,	-9.18044
▁하지	-9.18044
▁해당하는	-9.18044
▁%}	-9.21553
▁10;	-9.21553
▁16)	-9.21553
▁^=	-9.21553
▁`	-9.21553
▁bean	-9.21553
▁head;	-9.21553
▁i);	-9.21553
▁mysql	-9.21553
▁onClick(View	-9.21553
▁printf(""	-9.21553
▁sc.nextInt();	-9.21553
▁가져와서	-9.21553
▁가지	-9.21553
▁개의	-9.21553
▁경우에	-9.21553
▁만들려고	-9.21553
▁몰라서	-9.21553
▁문자열의	-9.21553
▁받고	-9.21553
▁볼	-9.21553
▁선언	-9.21553
▁실제	-9.21553
▁안되는	-9.21553
▁어디서	-9.21553
▁언제	-9.21553
▁예제를	-9.21553
▁이제	-9.21553
▁정보가	-9.21553
▁제일	-9.21553
▁좋을까요?	-9.21553
▁짠	-9.21553
▁출력을	-9.21553
▁크롤링	-9.21553
▁클라이언트	-9.21553
▁함께	-9.21553
▁함수에서	-9.21553
▁후,	-9.21553
▁""""	-9.2519
▁""<td	-9.2519
▁',	-9.2519
▁(IOException	-9.2519
▁(x	-9.2519
▁BeautifulSoup	-9.2519
▁arr	-9.2519
▁array	-9.2519
▁been	-9.2519
▁jquery	-9.2519
▁main	-9.2519
▁msg	-9.2519
▁stack	-9.2519
▁title	-9.2519
▁걸	-9.2519
▁굳이	-9.2519
▁노드를	-9.2519
▁노드의	-9.2519
▁리스트에	-9.2519
▁부분에	-9.2519
▁사용하지	-9.2519
▁사용한	-9.2519
▁작성한	-9.2519
▁크기	-9.2519
▁함수로	-9.2519
▁0){	-9.28964
▁0으로	-9.28964
▁2차원	-9.28964
▁4.	-9.28964
▁===	-9.28964
▁Cannot	-9.28964
▁None	-9.28964
▁TextView	-9.28964
▁True	-9.28964
▁args){	-9.28964
▁ex)	-9.28964
▁height:	-9.28964
▁node-pre-gyp	-9.28964
▁printf(""%d	-9.28964
▁super.onCreate(savedInstanceState);	-9.28964
▁├──	-9.28964
▁간단하게	-9.28964
▁거	-9.28964
▁구조체	-9.28964
▁구현하고	-9.28964
▁맞는	-9.28964
▁메뉴	-9.28964
▁문자열에서	-9.28964
▁배열로	-9.28964
▁생성자가	-9.28964
▁서버에	-9.28964
▁실행되는	-9.28964
▁실행을	-9.28964
▁아시는	-9.28964
▁어떤식으로	-9.28964
▁이미지가	-9.28964
▁읽어주셔서	-9.28964
▁있도록	-9.28964
▁작업을	-9.28964
▁정의	-9.28964
▁조금	-9.28964
▁짜고	-9.28964
▁처음에	-9.28964
▁코딩	-9.28964
▁포인터를	-9.28964
▁하나를	-9.28964
▁한번	-9.28964
▁해야할지	-9.28964
▁행	-9.28964
▁---	-9.32886
▁4;	-9.32886
▁</form>	-9.32886
▁ERR!	-9.32886
▁False	-9.32886
▁Intent	-9.32886
▁_delay_us(100);//cycle_us(100);	-9.32886
▁data)	-9.32886
▁j++){	-9.32886
▁out	-9.32886
▁sc	-9.32886
▁scan	-9.32886
▁객체의	-9.32886
▁관련해서	-9.32886
▁넣고	-9.32886
▁노드	-9.32886
▁도움이	-9.32886
▁따라서	-9.32886
▁만들었는데	-9.32886
▁모르겠습니다	-9.32886
▁모르겠습니다..	-9.32886
▁문자열로	-9.32886
▁변수의	-9.32886
▁시작	-9.32886
▁안녕하세요	-9.32886
▁앱	-9.32886
▁없나요?	-9.32886
▁입력받은	-9.32886
▁입력하세요	-9.32886
▁잘못	-9.32886
▁질문,"```	-9.32886
▁찾는	-9.32886
▁콘텐츠	-9.32886
▁클릭하면	-9.32886
▁필요한	-9.32886
▁하는데요.	-9.32886
▁(n	-9.36968
▁50	-9.36968
▁<html>	-9.36968
▁<label	-9.36968
▁FILE	-9.36968
▁Object	-9.36968
▁answer	-9.36968
▁b;	-9.36968
▁bs4	-9.36968
▁command	-9.36968
▁false,	-9.36968
▁first:	-9.36968
▁int[][]	-9.36968
▁last:	-9.36968
▁numpy	-9.36968
▁onCreate(Bundle	-9.36968
▁os	-9.36968
▁passed:	-9.36968
▁requests	-9.36968
▁result;	-9.36968
▁row	-9.36968
▁v)	-9.36968
▁year:	-9.36968
▁가리키는	-9.36968
▁감사하겠습니다	-9.36968
▁궁금합니다	-9.36968
▁꼭	-9.36968
▁내용	-9.36968
▁되고	-9.36968
▁또한	-9.36968
▁마지막에	-9.36968
▁문자	-9.36968
▁부모	-9.36968
▁삭제	-9.36968
▁아닌가요?	-9.36968
▁여러개의	-9.36968
▁연결	-9.36968
▁저장할	-9.36968
▁주소	-9.36968
▁차이는	-9.36968
▁초보	-9.36968
▁함수에	-9.36968
▁해	-9.36968
▁해야하나요?	-9.36968
▁'''	-9.41224
▁(1	-9.41224
▁(var	-9.41224
▁1px	-9.41224
▁20	-9.41224
▁2번	-9.41224
▁<li>	-9.41224
▁<span	-9.41224
▁API	-9.41224
▁MainActivity	-9.41224
▁W/System.err:	-9.41224
▁byte	-9.41224
▁cannot	-9.41224
▁change	-9.41224
▁defined	-9.41224
▁no	-9.41224
▁null,	-9.41224
▁template	-9.41224
▁top	-9.41224
▁try:	-9.41224
▁ul	-9.41224
▁z	-9.41224
▁}//end	-9.41224
▁개	-9.41224
▁것인지	-9.41224
▁결과는	-9.41224
▁과정에서	-9.41224
▁구글	-9.41224
▁구하는	-9.41224
▁그러면	-9.41224
▁그런지	-9.41224
▁글	-9.41224
▁길이를	-9.41224
▁나오지	-9.41224
▁다르게	-9.41224
▁다음에	-9.41224
▁뒤	-9.41224
▁무엇을	-9.41224
▁무엇인지	-9.41224
▁빈	-9.41224
▁생성하는	-9.41224
▁설명	-9.41224
▁설명을	-9.41224
▁실제로	-9.41224
▁알파벳	-9.41224
▁이것을	-9.41224
▁작은	-9.41224
▁줄	-9.41224
▁초보입니다.	-9.41224
▁프로젝트를	-9.41224
▁하나만	-9.41224
▁환경에서	-9.41224
▁%d"",	-9.45669
▁0x01);//125ns	-9.45669
▁375	-9.45669
▁<bean	-9.45669
▁<button	-9.45669
▁<form	-9.45669
▁<li	-9.45669
▁JPanel	-9.45669
▁M	-9.45669
▁TRUE;	-9.45669
▁URL	-9.45669
▁\n"");	-9.45669
▁];	-9.45669
▁action	-9.45669
▁actionPerformed(ActionEvent	-9.45669
▁count++;	-9.45669
▁e){	-9.45669
▁found	-9.45669
▁mDriver.setText(1,etTmp.getText().toString());	-9.45669
▁main(String	-9.45669
▁n)	-9.45669
▁p;	-9.45669
▁padding:	-9.45669
▁permission	-9.45669
▁read	-9.45669
▁two	-9.45669
▁work	-9.45669
▁가져오는	-9.45669
▁걸로	-9.45669
▁게시판	-9.45669
▁게임을	-9.45669
▁구현할	-9.45669
▁기능이	-9.45669
▁기준으로	-9.45669
▁나와서	-9.45669
▁납니다.	-9.45669
▁몇	-9.45669
▁문제인지	-9.45669
▁반환하는	-9.45669
▁보내는	-9.45669
▁봤는데	-9.45669
▁사용하면	-9.45669
▁생겨서	-9.45669
▁수는	-9.45669
▁수도	-9.45669
▁스튜디오	-9.45669
▁싶어요.	-9.45669
▁안녕하세요.	-9.45669
▁않아	-9.45669
▁이상	-9.45669
▁이클립스	-9.45669
▁있게	-9.45669
▁있어	-9.45669
▁작성	-9.45669
▁정보	-9.45669
▁줄에	-9.45669
▁클래스에	-9.45669
▁클릭	-9.45669
▁프로그램이	-9.45669
▁확인하는	-9.45669
▁$$$에	-9.50321
▁%d,	-9.50321
▁200	-9.50321
▁L	-9.50321
▁T	-9.50321
▁Test	-9.50321
▁_delay_us(1);//cycle_8(1);	-9.50321
▁_delay_us(149);//cycle_us(149);	-9.50321
▁add	-9.50321
▁board	-9.50321
▁callback	-9.50321
▁can	-9.50321
▁color	-9.50321
▁continue;	-9.50321
▁count;	-9.50321
▁default:	-9.50321
▁enum	-9.50321
▁error:	-9.50321
▁get	-9.50321
▁head	-9.50321
▁html>	-9.50321
▁invalid	-9.50321
▁let	-9.50321
▁max	-9.50321
▁name:	-9.50321
▁reference	-9.50321
▁root	-9.50321
▁selenium	-9.50321
▁self)	-9.50321
▁set	-9.50321
▁thread	-9.50321
▁try{	-9.50321
▁y,	-9.50321
▁가능한	-9.50321
▁거의	-9.50321
▁궁금해서	-9.50321
▁기존	-9.50321
▁동적으로	-9.50321
▁되는데,	-9.50321
▁딕셔너리	-9.50321
▁메시지를	-9.50321
▁명령	-9.50321
▁모르겠네요.	-9.50321
▁밑의	-9.50321
▁반복문을	-9.50321
▁변경	-9.50321
▁복사	-9.50321
▁선택한	-9.50321
▁시간을	-9.50321
▁아는	-9.50321
▁않으면	-9.50321
▁알았는데	-9.50321
▁여러개	-9.50321
▁은	-9.50321
▁읽고	-9.50321
▁저런	-9.50321
▁적용이	-9.50321
▁전혀	-9.50321
▁접속	-9.50321
▁질문입니다.	-9.50321
▁하게	-9.50321
▁하고싶은데	-9.50321
▁해야할까요?	-9.50321
▁!	-9.552
▁"""",	-9.552
▁""A"",	-9.552
▁""B"",	-9.552
▁(1,	-9.552
▁(obj.get(""fcstValue"")).toString();	-9.552
▁20;	-9.552
▁<string.h>	-9.552
▁DB	-9.552
▁DB에	-9.552
▁Matrix	-9.552
▁Source)	-9.552
▁android:layout_height=""wrap_content""	-9.552
▁can't	-9.552
▁constructor	-9.552
▁image	-9.552
▁like	-9.552
▁post	-9.552
▁res	-9.552
▁run()	-9.552
▁setting	-9.552
▁std::endl;	-9.552
▁student	-9.552
▁total	-9.552
▁type=""checkbox""	-9.552
▁width:	-9.552
▁객체로	-9.552
▁것도	-9.552
▁계산	-9.552
▁고수님들	-9.552
▁그러나	-9.552
▁기본	-9.552
▁나온	-9.552
▁내에서	-9.552
▁넣는	-9.552
▁똑같은	-9.552
▁만들기	-9.552
▁메소드는	-9.552
▁변환	-9.552
▁부분의	-9.552
▁부터	-9.552
▁불러오는	-9.552
▁사이트	-9.552
▁사진을	-9.552
▁새로	-9.552
▁시간	-9.552
▁아무것도	-9.552
▁아예	-9.552
▁안되고	-9.552
▁안드로이드에서	-9.552
▁웹에서	-9.552
▁있고,	-9.552
▁있을까요??	-9.552
▁접근	-9.552
▁정수를	-9.552
▁즉	-9.552
▁질문입니다.,"```	-9.552
▁찾을	-9.552
▁코드인데	-9.552
▁프로그래밍	-9.552
▁프로젝트	-9.552
▁해결	-9.552
▁""C"",	-9.6033
▁((data	-9.6033
▁){	-9.6033
▁+=""	-9.6033
▁<!---->	-9.6033
▁</bean>	-9.6033
▁</select>	-9.6033
▁</table>	-9.6033
▁<td>	-9.6033
▁GET	-9.6033
▁NULL	-9.6033
▁Please	-9.6033
▁View.OnClickListener()	-9.6033
▁X	-9.6033
▁[3]:	-9.6033
▁b,	-9.6033
▁class=""form-control""	-9.6033
▁cnt	-9.6033
▁creating	-9.6033
▁default	-9.6033
▁dx	-9.6033
▁element	-9.6033
▁event	-9.6033
▁for(i=0;	-9.6033
▁have	-9.6033
▁i++;	-9.6033
▁idx	-9.6033
▁item;	-9.6033
▁jsp	-9.6033
▁main(){	-9.6033
▁nav	-9.6033
▁num1	-9.6033
▁property	-9.6033
▁re	-9.6033
▁right	-9.6033
▁scanf_s(""%d"",	-9.6033
▁soup	-9.6033
▁style=""width:	-9.6033
▁throw	-9.6033
▁will	-9.6033
▁window	-9.6033
▁~	-9.6033
▁가운데	-9.6033
▁가져오고	-9.6033
▁값만	-9.6033
▁같아서	-9.6033
▁개발자	-9.6033
▁관련된	-9.6033
▁구글링을	-9.6033
▁그런데,	-9.6033
▁나는	-9.6033
▁넣어서	-9.6033
▁노드가	-9.6033
▁단순히	-9.6033
▁되는지	-9.6033
▁된다고	-9.6033
▁들어가는	-9.6033
▁리스트가	-9.6033
▁모르겠어서	-9.6033
▁배열이	-9.6033
▁번호를	-9.6033
▁부탁드립니다	-9.6033
▁비슷한	-9.6033
▁삭제할	-9.6033
▁어떻게하면	-9.6033
▁위치를	-9.6033
▁이때	-9.6033
▁이벤트를	-9.6033
▁이와	-9.6033
▁입력이	-9.6033
▁있는데요	-9.6033
▁점이	-9.6033
▁좀더	-9.6033
▁주로	-9.6033
▁중간에	-9.6033
▁참고로	-9.6033
▁찾고	-9.6033
▁책을	-9.6033
▁필드	-9.6033
▁확인할	-9.6033
▁""CPU-TIME	-9.65736
▁'I'	-9.65736
▁....	-9.65736
▁0이	-9.65736
▁11,	-9.65736
▁2개	-9.65736
▁<?xml	-9.65736
▁<select	-9.65736
▁AND	-9.65736
▁API를	-9.65736
▁C	-9.65736
▁DialogInterface.OnClickListener()	-9.65736
▁HTML	-9.65736
▁JFrame	-9.65736
▁JPanel();	-9.65736
▁Person	-9.65736
▁True)	-9.65736
▁_delay_us(1);//cycle_3(1);	-9.65736
▁age	-9.65736
▁all	-9.65736
▁argument	-9.65736
▁body	-9.65736
▁br	-9.65736
▁choice	-9.65736
▁created!	-9.65736
▁d	-9.65736
▁date	-9.65736
▁dy	-9.65736
▁enter	-9.65736
▁g	-9.65736
▁h	-9.65736
▁label	-9.65736
▁len	-9.65736
▁must	-9.65736
▁n,	-9.65736
▁onClick(DialogInterface	-9.65736
▁password	-9.65736
▁position	-9.65736
▁range	-9.65736
▁}",3	-9.65736
▁가져오기	-9.65736
▁가지는	-9.65736
▁갑자기	-9.65736
▁개발을	-9.65736
▁검색을	-9.65736
▁것으로	-9.65736
▁경우,	-9.65736
▁공부	-9.65736
▁그렇다면	-9.65736
▁까지	-9.65736
▁나	-9.65736
▁나오고	-9.65736
▁넣으면	-9.65736
▁넣을	-9.65736
▁대신	-9.65736
▁도와주시면	-9.65736
▁되게	-9.65736
▁등록	-9.65736
▁라이브러리를	-9.65736
▁리스트의	-9.65736
▁만큼	-9.65736
▁모바일	-9.65736
▁뭔지	-9.65736
▁반복	-9.65736
▁방법,"	-9.65736
▁변수는	-9.65736
▁부탁	-9.65736
▁사용하는데	-9.65736
▁수정	-9.65736
▁싶어서	-9.65736
▁싶은데,	-9.65736
▁아규먼트:	-9.65736
▁아이디	-9.65736
▁없을	-9.65736
▁연산자를	-9.65736
▁예외가	-9.65736
▁이라고	-9.65736
▁인스턴스	-9.65736
▁읽을	-9.65736
▁작성하고	-9.65736
▁정점의	-9.65736
▁중에서	-9.65736
▁지우는	-9.65736
▁질문드립니다	-9.65736
▁차이를	-9.65736
▁채팅	-9.65736
▁처리를	-9.65736
▁코드에	-9.65736
▁파일에서	-9.65736
▁하기	-9.65736
▁하나씩	-9.65736
▁하였습니다.	-9.65736
▁할때	-9.65736
▁항목을	-9.65736
▁현상이	-9.65736
▁형태의	-9.65736
▁화면을	-9.65736
▁(j	-9.71452
▁(y	-9.71452
▁10)	-9.71452
▁30	-9.71452
▁3:	-9.71452
▁4)	-9.71452
▁::	-9.71452
▁<img	-9.71452
▁<link	-9.71452
▁<ul	-9.71452
▁Class	-9.71452
▁Cursor	-9.71452
▁EditText	-9.71452
▁IT_Daily_ilji	-9.71452
▁JButton	-9.71452
▁JSONObject	-9.71452
▁List	-9.71452
▁Node*	-9.71452
▁POST	-9.71452
▁String으로	-9.71452
▁String을	-9.71452
▁Student	-9.71452
▁],	-9.71452
▁api	-9.71452
▁await	-9.71452
▁button	-9.71452
▁check	-9.71452
▁context	-9.71452
▁data:	-9.71452
▁evt)	-9.71452
▁except	-9.71452
▁exit(1);	-9.71452
▁finally	-9.71452
▁library	-9.71452
▁mx	-9.71452
▁num);	-9.71452
▁number;	-9.71452
▁path	-9.71452
▁socket	-9.71452
▁tmp	-9.71452
▁top;	-9.71452
▁type,	-9.71452
▁version=""1.0""	-9.71452
▁virtual	-9.71452
▁we	-9.71452
▁when	-9.71452
▁word	-9.71452
▁x)	-9.71452
▁같아	-9.71452
▁구현하는	-9.71452
▁궁금한게	-9.71452
▁나와야	-9.71452
▁두가지	-9.71452
▁등을	-9.71452
▁뜨네요	-9.71452
▁리스트로	-9.71452
▁막	-9.71452
▁만들었습니다.	-9.71452
▁맞게	-9.71452
▁매번	-9.71452
▁메시지	-9.71452
▁모르겠어요	-9.71452
▁모르겠어요.	-9.71452
▁모르는	-9.71452
▁못하고	-9.71452
▁못하는	-9.71452
▁문장이	-9.71452
▁문제입니다.	-9.71452
▁발생	-9.71452
▁버전을	-9.71452
▁보기	-9.71452
▁보시면	-9.71452
▁사람이	-9.71452
▁상위	-9.71452
▁상황입니다.	-9.71452
▁서비스를	-9.71452
▁선택	-9.71452
▁세	-9.71452
▁실행시키면	-9.71452
▁쓰지	-9.71452
▁에러를	-9.71452
▁여기	-9.71452
▁원소가	-9.71452
▁이거	-9.71452
▁이름이	-9.71452
▁이전	-9.71452
▁저장을	-9.71452
▁전	-9.71452
▁질문은	-9.71452
▁차이점은	-9.71452
▁찾지	-9.71452
▁크기가	-9.71452
▁하나로	-9.71452
▁하다가	-9.71452
▁![이미지][3]	-9.77515
▁"$$$에서	-9.77515
▁#ccc;	-9.77515
▁$$$과	-9.77515
▁$$$는	-9.77515
▁'__main__':	-9.77515
▁0x0000003f	-9.77515
▁15	-9.77515
▁2);	-9.77515
▁2번째	-9.77515
▁</dependency>	-9.77515
▁</style>	-9.77515
▁<dependency>	-9.77515
▁AppCompatActivity	-9.77515
▁ID	-9.77515
▁String,	-9.77515
▁StringBuilder();	-9.77515
▁WHERE	-9.77515
▁ch	-9.77515
▁class=""output""	-9.77515
▁css	-9.77515
▁day	-9.77515
▁e	-9.77515
▁false)	-9.77515
▁false);	-9.77515
▁for(j=0;	-9.77515
▁fval	-9.77515
▁http	-9.77515
▁id;	-9.77515
▁if(one	-9.77515
▁l	-9.77515
▁m	-9.77515
▁messagebox.showinfo(""당신의	-9.77515
▁np	-9.77515
▁null){	-9.77515
▁one	-9.77515
▁p2	-9.77515
▁print(len(lists))	-9.77515
▁resource	-9.77515
▁retval	-9.77515
▁same	-9.77515
▁scanner	-9.77515
▁setContentView(R.layout.activity_main);	-9.77515
▁sys	-9.77515
▁type;	-9.77515
▁{};	-9.77515
▁ᅲᅲᅲ	-9.77515
▁•	-9.77515
▁감사합니다!	-9.77515
▁객체에	-9.77515
▁그렇게	-9.77515
▁까지는	-9.77515
▁내용은	-9.77515
▁눌렀을	-9.77515
▁다중	-9.77515
▁둘다	-9.77515
▁들어서	-9.77515
▁만	-9.77515
▁만들어야	-9.77515
▁메세지	-9.77515
▁멤버	-9.77515
▁뭐	-9.77515
▁반복문	-9.77515
▁받을	-9.77515
▁방법에	-9.77515
▁복사하는	-9.77515
▁부분만	-9.77515
▁사이의	-9.77515
▁사이트를	-9.77515
▁생각이	-9.77515
▁선택"",	-9.77515
▁속도가	-9.77515
▁수정하고	-9.77515
▁순서를	-9.77515
▁실시간	-9.77515
▁실행하고	-9.77515
▁실행하는	-9.77515
▁아무런	-9.77515
▁앱을	-9.77515
▁없어	-9.77515
▁위처럼	-9.77515
▁위치에	-9.77515
▁이번에	-9.77515
▁이클립스에서	-9.77515
▁입력된	-9.77515
▁작동을	-9.77515
▁정도	-9.77515
▁존재하는	-9.77515
▁중인데	-9.77515
▁지정	-9.77515
▁찾아	-9.77515
▁최종	-9.77515
▁출력한다.	-9.77515
▁쿼리를	-9.77515
▁텍스트를	-9.77515
▁통신	-9.77515
▁포함된	-9.77515
▁폴더	-9.77515
▁하니	-9.77515
▁합니다	-9.77515
▁해결해야	-9.77515
▁해봐도	-9.77515
▁했을	-9.77515
▁""Enter	-9.83969
▁""SELECT	-9.83969
▁#gnb	-9.83969
▁#include<stdio.h>	-9.83969
▁$.ajax({	-9.83969
▁(count	-9.83969
▁(true)	-9.83969
▁1024	-9.83969
▁3);	-9.83969
▁4);	-9.83969
▁45,	-9.83969
▁5.	-9.83969
▁500	-9.83969
▁</td>	-9.83969
▁<table	-9.83969
▁ArrayList<>();	-9.83969
▁Complex&	-9.83969
▁False)	-9.83969
▁IOException	-9.83969
▁Integer	-9.83969
▁START	-9.83969
▁Server	-9.83969
▁VALUES	-9.83969
▁__init__(self):	-9.83969
▁__str__(self):	-9.83969
▁_ldfm	-9.83969
▁```",1	-9.83969
▁`var	-9.83969
▁animal	-9.83969
▁conn	-9.83969
▁email	-9.83969
▁empty	-9.83969
▁exit	-9.83969
▁flask	-9.83969
▁foo	-9.83969
▁function()	-9.83969
▁img	-9.83969
▁integer	-9.83969
▁intent	-9.83969
▁int로	-9.83969
▁j,	-9.83969
▁leftt	-9.83969
▁member	-9.83969
▁models	-9.83969
▁nodejs	-9.83969
▁open	-9.83969
▁program	-9.83969
▁q	-9.83969
▁result)	-9.83969
▁temp1	-9.83969
▁tensorflow	-9.83969
▁test_3	-9.83969
▁test_4	-9.83969
▁true)	-9.83969
▁visual	-9.83969
▁가능한가요?	-9.83969
▁같은데,	-9.83969
▁것과	-9.83969
▁결과값	-9.83969
▁경로	-9.83969
▁경우가	-9.83969
▁계산하는	-9.83969
▁과정을	-9.83969
▁관리자	-9.83969
▁구현을	-9.83969
▁구현하려고	-9.83969
▁그걸	-9.83969
▁기존에	-9.83969
▁날짜	-9.83969
▁내의	-9.83969
▁대문자로	-9.83969
▁대하여	-9.83969
▁댓글	-9.83969
▁도대체	-9.83969
▁동영상	-9.83969
▁동작을	-9.83969
▁들면	-9.83969
▁딱	-9.83969
▁랜덤하게	-9.83969
▁몰라	-9.83969
▁무조건	-9.83969
▁문자가	-9.83969
▁물론	-9.83969
▁밖에	-9.83969
▁방법도	-9.83969
▁배열에서	-9.83969
▁보니까	-9.83969
▁분명	-9.83969
▁빠르게	-9.83969
▁사용해	-9.83969
▁상에서	-9.83969
▁상태에서	-9.83969
▁생겼습니다.	-9.83969
▁생성하고	-9.83969
▁서버로	-9.83969
▁설정을	-9.83969
▁소멸자	-9.83969
▁소스는	-9.83969
▁시간이	-9.83969
▁아시는분	-9.83969
▁안되서	-9.83969
▁않네요	-9.83969
▁외부	-9.83969
▁원래는	-9.83969
▁웹사이트를	-9.83969
▁의미를	-9.83969
▁이용하면	-9.83969
▁이후	-9.83969
▁읽어서	-9.83969
▁입력받아	-9.83969
▁입력하고	-9.83969
▁있지	-9.83969
▁전송	-9.83969
▁전체를	-9.83969
▁절대	-9.83969
▁정렬	-9.83969
▁제거	-9.83969
▁좋을지	-9.83969
▁주고	-9.83969
▁주는	-9.83969
▁주소가	-9.83969
▁찾아보니	-9.83969
▁찾아봐도	-9.83969
▁출력하려고	-9.83969
▁태그	-9.83969
▁테스트를	-9.83969
▁테이블	-9.83969
▁페이지가	-9.83969
▁페이지에서	-9.83969
▁폴더를	-9.83969
▁프로그래밍을	-9.83969
▁프로그램에서	-9.83969
▁하는데요	-9.83969
▁한글	-9.83969
▁할당	-9.83969
▁해결이	-9.83969
▁헤더	-9.83969
▁혹시나	-9.83969
▁화면	-9.83969
▁""))	-9.90868
▁(3,	-9.90868
▁***	-9.90868
▁-*-	-9.90868
▁04-27	-9.90868
▁0을	-9.90868
▁10개의	-9.90868
▁11	-9.90868
▁12,	-9.90868
▁12218-12762/org.androidtown.ezcoffee	-9.90868
▁1번	-9.90868
▁20)	-9.90868
▁2]	-9.90868
▁5)	-9.90868
▁70,	-9.90868
▁:"");	-9.90868
▁Activity	-9.90868
▁Animal	-9.90868
▁ArrayList	-9.90868
▁ArrayList<String>	-9.90868
▁Car	-9.90868
▁Check	-9.90868
▁Create	-9.90868
▁DEBUG	-9.90868
▁END	-9.90868
▁INTO	-9.90868
▁JSON	-9.90868
▁JTextField	-9.90868
▁N;	-9.90868
▁PersonArray	-9.90868
▁Random	-9.90868
▁StringBuilder	-9.90868
▁T>	-9.90868
▁[0	-9.90868
▁\n"",	-9.90868
▁_delay_us(1);	-9.90868
▁c;	-9.90868
▁catch(Exception	-9.90868
▁class=""btn	-9.90868
▁color:	-9.90868
▁db에	-9.90868
▁del	-9.90868
▁first	-9.90868
▁into	-9.90868
▁model	-9.90868
▁more	-9.90868
▁name);	-9.90868
▁native	-9.90868
▁photo	-9.90868
▁print()	-9.90868
▁rand()	-9.90868
▁scan.nextInt();	-9.90868
▁score	-9.90868
▁size;	-9.90868
▁so	-9.90868
▁studio	-9.90868
▁success:	-9.90868
▁times	-9.90868
▁type=""button""	-9.90868
▁u'id':	-9.90868
▁v	-9.90868
▁which)	-9.90868
▁while문	-9.90868
▁width,	-9.90868
▁xml	-9.90868
▁y[i]	-9.90868
▁감사합니다	-9.90868
▁감사합니다.",4	-9.90868
▁값들을	-9.90868
▁값에	-9.90868
▁것인데	-9.90868
▁것처럼	-9.90868
▁게임	-9.90868
▁결과값이	-9.90868
▁경로를	-9.90868
▁나오네요.	-9.90868
▁내	-9.90868
▁내에	-9.90868
▁넘기는	-9.90868
▁넣기	-9.90868
▁다름이	-9.90868
▁다운로드	-9.90868
▁단어	-9.90868
▁단어를	-9.90868
▁돌려서	-9.90868
▁동적	-9.90868
▁되도록	-9.90868
▁들어간	-9.90868
▁뜨는	-9.90868
▁로또	-9.90868
▁모듈	-9.90868
▁무엇인가요?	-9.90868
▁문장을	-9.90868
▁뭔가요?,"	-9.90868
▁바꿀	-9.90868
▁바이트	-9.90868
▁버전	-9.90868
▁버전은	-9.90868
▁번호	-9.90868
▁소스코드	-9.90868
▁쉬운	-9.90868
▁싶습니다	-9.90868
▁싶은데요.	-9.90868
▁아니고	-9.90868
▁아래처럼	-9.90868
▁안되네요	-9.90868
▁알고싶습니다.	-9.90868
▁엄청	-9.90868
▁역할을	-9.90868
▁연산을	-9.90868
▁영향을	-9.90868
▁이렇습니다.	-9.90868
▁이메일	-9.90868
▁인자를	-9.90868
▁일	-9.90868
▁임의의	-9.90868
▁있나요?",3	-9.90868
▁있었습니다.	-9.90868
▁자동	-9.90868
▁자료를	-9.90868
▁작동하지	-9.90868
▁접근하는	-9.90868
▁정상	-9.90868
▁정확한	-9.90868
▁조건에	-9.90868
▁조언을	-9.90868
▁질문,"안녕하세요.	-9.90868
▁짰는데	-9.90868
▁찾기	-9.90868
▁최대	-9.90868
▁출력되는	-9.90868
▁출력하면	-9.90868
▁클라이언트에서	-9.90868
▁클릭시	-9.90868
▁키를	-9.90868
▁테이블에	-9.90868
▁하고,	-9.90868
▁한다.	-9.90868
▁할수	-9.90868
▁해야하는지	-9.90868
▁해주는	-9.90868
▁""r"");	-9.98279
▁&amp;&amp;	-9.98279
▁(TextView)	-9.98279
▁11-25	-9.98279
▁1개	-9.98279
▁200px;	-9.98279
▁2개의	-9.98279
▁6;	-9.98279
▁<string>	-9.98279
▁<ul>	-9.98279
▁AS	-9.98279
▁AlertDialog.Builder	-9.98279
▁Complex	-9.98279
▁ERROR/AndroidRuntime(302):	-9.98279
▁FALSE;	-9.98279
▁Foo	-9.98279
▁I	-9.98279
▁NULL);	-9.98279
▁Node.js	-9.98279
▁Process	-9.98279
▁Request	-9.98279
▁ServletContext	-9.98279
▁System.out.println();	-9.98279
▁Thread	-9.98279
▁Toast.makeText(MainActivity.this,	-9.98279
▁[/WEB-INF/spring/root-context.xml]:	-9.98279
▁```",4	-9.98279
▁age)	-9.98279
▁ajax	-9.98279
▁args[])	-9.98279
▁async	-9.98279
▁attribute	-9.98279
▁b)	-9.98279
▁chunk	-9.98279
▁client	-9.98279
▁codec	-9.98279
▁content	-9.98279
▁continue	-9.98279
▁could	-9.98279
▁current	-9.98279
▁cursor	-9.98279
▁dialog,	-9.98279
▁driver	-9.98279
▁et.setText("""");	-9.98279
▁etTmp.setText(etTmp.getText().toString()	-9.98279
▁exit(0);	-9.98279
▁function(req,	-9.98279
▁global.scoreboard	-9.98279
▁height	-9.98279
▁ifstream	-9.98279
▁insert	-9.98279
▁instance	-9.98279
▁int를	-9.98279
▁last	-9.98279
▁left	-9.98279
▁login	-9.98279
▁m;	-9.98279
▁mDriver.setText(2,et.getText().toString());	-9.98279
▁matplotlib.pyplot	-9.98279
▁name)	-9.98279
▁num,	-9.98279
▁org.springframework.beans.factory.BeanCreationException:	-9.98279
▁p1	-9.98279
▁pandas	-9.98279
▁parent,	-9.98279
▁printf(""%d"",	-9.98279
▁rel=""stylesheet""	-9.98279
▁render(request,	-9.98279
▁scanf(""%s"",	-9.98279
▁setVisible(true);	-9.98279
▁should	-9.98279
▁st	-9.98279
▁std::string	-9.98279
▁success	-9.98279
▁syntax	-9.98279
▁temp2	-9.98279
▁tr	-9.98279
▁variable	-9.98279
▁view	-9.98279
▁want	-9.98279
▁webdriver	-9.98279
▁},{	-9.98279
▁값의	-9.98279
▁같고	-9.98279
▁개수를	-9.98279
▁결국	-9.98279
▁고수님들의	-9.98279
▁구현이	-9.98279
▁긴	-9.98279
▁나머지	-9.98279
▁나서	-9.98279
▁나타내는	-9.98279
▁답을	-9.98279
▁대충	-9.98279
▁도중	-9.98279
▁들어가	-9.98279
▁디렉토리	-9.98279
▁띄우는	-9.98279
▁라이브러리가	-9.98279
▁랜덤한	-9.98279
▁로직	-9.98279
▁리스트에서	-9.98279
▁맞는지	-9.98279
▁매개변수로	-9.98279
▁메소드에서	-9.98279
▁문제의	-9.98279
▁미리	-9.98279
▁받아오는	-9.98279
▁발생한	-9.98279
▁발생했습니다.	-9.98279
▁배우고	-9.98279
▁범위를	-9.98279
▁변수로	-9.98279
▁보이는	-9.98279
▁본	-9.98279
▁부분입니다.	-9.98279
▁불러와서	-9.98279
▁비교	-9.98279
▁사람의	-9.98279
▁사용을	-9.98279
▁사용이	-9.98279
▁사이에	-9.98279
▁새	-9.98279
▁선택하면	-9.98279
▁세션을	-9.98279
▁소스코드를	-9.98279
▁숫자는	-9.98279
▁숫자로	-9.98279
▁스레드	-9.98279
▁실행시	-9.98279
▁쓰는게	-9.98279
▁아이템	-9.98279
▁않나요?	-9.98279
▁않네요.	-9.98279
▁않을	-9.98279
▁알겠는데	-9.98279
▁얻을	-9.98279
▁업로드	-9.98279
▁없는데	-9.98279
▁여러가지	-9.98279
▁요소	-9.98279
▁요청한	-9.98279
▁움직이는	-9.98279
▁원하는건	-9.98279
▁이름이나	-9.98279
▁이벤트가	-9.98279
▁이상하게	-9.98279
▁이용하는	-9.98279
▁읽기	-9.98279
▁읽는	-9.98279
▁있어야	-9.98279
▁작동이	-9.98279
▁작성하는	-9.98279
▁작업	-9.98279
▁저장하려고	-9.98279
▁조건	-9.98279
▁조건을	-9.98279
▁지금까지	-9.98279
▁창을	-9.98279
▁찾아서	-9.98279
▁초기화를	-9.98279
▁출력하려면	-9.98279
▁크게	-9.98279
▁크롤링을	-9.98279
▁타입	-9.98279
▁타입의	-9.98279
▁태그를	-9.98279
▁페이지에	-9.98279
▁평균	-9.98279
▁포인터로	-9.98279
▁프레임	-9.98279
▁하나하나	-9.98279
▁하는게	-9.98279
▁한글로	-9.98279
▁행의	-9.98279
▁호출이	-9.98279
▁"""");	-10.0628
▁""+	-10.0628
▁####"",	-10.0628
▁###에러내용	-10.0628
▁#pragma	-10.0628
▁$$$.util.ArrayList;	-10.0628
▁$$$은	-10.0628
▁&nbsp;	-10.0628
▁''	-10.0628
▁'html.parser')	-10.0628
▁(buffer[i]	-10.0628
▁(err)	-10.0628
▁(err,	-10.0628
▁(p	-10.0628
▁(top	-10.0628
▁+1	-10.0628
▁-1.	-10.0628
▁.accordion	-10.0628
▁//the	-10.0628
▁//여기에	-10.0628
▁0]	-10.0628
▁10px;	-10.0628
▁14:47:01.681:	-10.0628
▁16;	-10.0628
▁1];	-10.0628
▁1을	-10.0628
▁30,	-10.0628
▁4:	-10.0628
▁5]	-10.0628
▁78]	-10.0628
▁8)	-10.0628
▁<th	-10.0628
▁ActionListener	-10.0628
▁CLOCKS_PER_SEC	-10.0628
▁Data	-10.0628
▁InputStream	-10.0628
▁Log.d(""juho"",	-10.0628
▁None:	-10.0628
▁S	-10.0628
▁SELECT	-10.0628
▁Socket	-10.0628
▁System.exit(0);	-10.0628
▁System.out.print(""	-10.0628
▁This	-10.0628
▁UI	-10.0628
▁XML	-10.0628
▁a);	-10.0628
▁a:	-10.0628
▁access	-10.0628
▁addr	-10.0628
▁agenda	-10.0628
▁android:layout_height=""match_parent""	-10.0628
▁android:layout_width=""wrap_content""	-10.0628
▁but	-10.0628
▁c,	-10.0628
▁clock();	-10.0628
▁display:	-10.0628
▁dy][nx	-10.0628
▁endl	-10.0628
▁foo()	-10.0628
▁fscanf(fp,	-10.0628
▁gotoxy(40,	-10.0628
▁guess	-10.0628
▁items	-10.0628
▁min	-10.0628
▁ms	-10.0628
▁n);	-10.0628
▁net	-10.0628
▁null);	-10.0628
▁num2	-10.0628
▁numbers	-10.0628
▁option	-10.0628
▁printf(""%d\n"",	-10.0628
▁product	-10.0628
▁reader	-10.0628
▁s)	-10.0628
▁setw(10)	-10.0628
▁string을	-10.0628
▁t;	-10.0628
▁td	-10.0628
▁test_1	-10.0628
▁true);	-10.0628
▁typename	-10.0628
▁u'name':	-10.0628
▁url:	-10.0628
▁urllib.request	-10.0628
▁v8	-10.0628
▁v;	-10.0628
▁valid	-10.0628
▁value;	-10.0628
▁vector	-10.0628
▁w	-10.0628
▁work;	-10.0628
▁y1	-10.0628
▁└──	-10.0628
▁간단히	-10.0628
▁갖고	-10.0628
▁개수	-10.0628
▁경우를	-10.0628
▁계속해서	-10.0628
▁고쳐야	-10.0628
▁과정	-10.0628
▁괄호	-10.0628
▁구조체를	-10.0628
▁글이	-10.0628
▁기본적인	-10.0628
▁나오네요	-10.0628
▁단순	-10.0628
▁단어가	-10.0628
▁당연히	-10.0628
▁되어서	-10.0628
▁되어있는	-10.0628
▁둘의	-10.0628
▁들어오는	-10.0628
▁등등	-10.0628
▁때마다	-10.0628
▁매개변수를	-10.0628
▁문서	-10.0628
▁바꾸면	-10.0628
▁받으면	-10.0628
▁방식이	-10.0628
▁변환하는	-10.0628
▁별로	-10.0628
▁보낼	-10.0628
▁보려고	-10.0628
▁불러오고	-10.0628
▁사용시	-10.0628
▁사용자에게	-10.0628
▁사용자의	-10.0628
▁사용하려고	-10.0628
▁사용해야	-10.0628
▁삽입	-10.0628
▁서버가	-10.0628
▁서비스	-10.0628
▁속도	-10.0628
▁스크립트	-10.0628
▁슬라이드	-10.0628
▁실행할	-10.0628
▁쓰는데	-10.0628
▁아래에	-10.0628
▁아무래도	-10.0628
▁않고,	-10.0628
▁않아도	-10.0628
▁않았습니다.	-10.0628
▁어느정도	-10.0628
▁어떠한	-10.0628
▁없으면	-10.0628
▁에러는	-10.0628
▁요소를	-10.0628
▁요청	-10.0628
▁요청을	-10.0628
▁웹사이트	-10.0628
▁의해	-10.0628
▁이부분에서	-10.0628
▁이용할	-10.0628
▁이해를	-10.0628
▁인데	-10.0628
▁인증	-10.0628
▁인터넷	-10.0628
▁일일이	-10.0628
▁읽어	-10.0628
▁입니다	-10.0628
▁있습니다	-10.0628
▁있었는데	-10.0628
▁있을까요?",5	-10.0628
▁있을때	-10.0628
▁있지만	-10.0628
▁전달	-10.0628
▁주어진	-10.0628
▁중복	-10.0628
▁중복된	-10.0628
▁질문합니다.	-10.0628
▁추가로	-10.0628
▁추가하고	-10.0628
▁코드에서는	-10.0628
▁코드처럼	-10.0628
▁쿼리	-10.0628
▁클라이언트가	-10.0628
▁통하여	-10.0628
▁패키지	-10.0628
▁페이지로	-10.0628
▁하고싶습니다.	-10.0628
▁함수입니다.	-10.0628
▁해보고	-10.0628
▁해보니	-10.0628
▁해주시면	-10.0628
▁현재는	-10.0628
▁형식	-10.0628
▁호출하는	-10.0628
▁회원	-10.0628
▁#endif	-10.1498
▁#include<stdlib.h>	-10.1498
▁%s	-10.1498
▁'*')	-10.1498
▁'a'	-10.1498
▁'b',	-10.1498
▁((line	-10.1498
▁(InterruptedException	-10.1498
▁(c	-10.1498
▁(ch	-10.1498
▁(void)	-10.1498
▁1)),	-10.1498
▁1){	-10.1498
▁10);	-10.1498
▁10-18	-10.1498
▁100%;	-10.1498
▁30;	-10.1498
▁3개의	-10.1498
▁50,	-10.1498
▁7);	-10.1498
▁<td><input	-10.1498
▁=0;	-10.1498
▁DB에서	-10.1498
▁Date	-10.1498
▁Error:	-10.1498
▁FTP	-10.1498
▁GUI	-10.1498
▁HTTP	-10.1498
▁HWND	-10.1498
▁HashMap<String,	-10.1498
▁INSERT	-10.1498
▁IPL_DEPTH_8U,	-10.1498
▁Input	-10.1498
▁NOT	-10.1498
▁Object>	-10.1498
▁PEOPLE;	-10.1498
▁Random();	-10.1498
▁SyntaxError:	-10.1498
▁User	-10.1498
▁XL	-10.1498
▁__init__.$$$	-10.1498
▁```",2	-10.1498
▁adapter	-10.1498
▁age;	-10.1498
▁ajax로	-10.1498
▁alert	-10.1498
▁allowNull:	-10.1498
▁already	-10.1498
▁api를	-10.1498
▁argc,	-10.1498
▁arr1	-10.1498
▁arr2	-10.1498
▁auto	-10.1498
▁bar	-10.1498
▁buffer	-10.1498
▁channel,	-10.1498
▁charset=""utf-8"">	-10.1498
▁cnt++;	-10.1498
▁col	-10.1498
▁connect	-10.1498
▁connection	-10.1498
▁cycle_us(100);	-10.1498
▁data);	-10.1498
▁data,	-10.1498
▁database	-10.1498
▁delete[]	-10.1498
▁df	-10.1498
▁dog	-10.1498
▁dx]	-10.1498
▁ejs	-10.1498
▁et.getText().toString()	-10.1498
▁et.setText(et.getText()	-10.1498
▁f:	-10.1498
▁gray	-10.1498
▁height);	-10.1498
▁id)	-10.1498
▁if(err)	-10.1498
▁ios::binary);	-10.1498
▁item)	-10.1498
▁item->coefficient	-10.1498
▁item->order	-10.1498
▁j;	-10.1498
▁location	-10.1498
▁mDriver.clearDisplay();	-10.1498
▁map	-10.1498
▁mapsize;	-10.1498
▁menu	-10.1498
▁module.exports	-10.1498
▁num)	-10.1498
▁obj	-10.1498
▁ok	-10.1498
▁order	-10.1498
▁plt	-10.1498
▁price	-10.1498
▁printf(""%s"",	-10.1498
▁push	-10.1498
▁random.random()	-10.1498
▁right)	-10.1498
▁scanner.nextInt();	-10.1498
▁script	-10.1498
▁setfill('	-10.1498
▁status	-10.1498
▁strHTML	-10.1498
▁then	-10.1498
▁they	-10.1498
▁tkinter	-10.1498
▁type='text'	-10.1498
▁value=""""	-10.1498
▁view,	-10.1498
▁z)	-10.1498
▁}]	-10.1498
▁ᅲᅲ",5	-10.1498
▁–	-10.1498
▁가능한지	-10.1498
▁가져온	-10.1498
▁감사합니다.",3	-10.1498
▁감을	-10.1498
▁갖는	-10.1498
▁걸까요?	-10.1498
▁것들을	-10.1498
▁계신가요?	-10.1498
▁구하기	-10.1498
▁그게	-10.1498
▁그리기	-10.1498
▁기능은	-10.1498
▁기존의	-10.1498
▁끝나면	-10.1498
▁나는데	-10.1498
▁내부에	-10.1498
▁단위로	-10.1498
▁답이	-10.1498
▁도	-10.1498
▁동일하게	-10.1498
▁등의	-10.1498
▁랜덤으로	-10.1498
▁로딩	-10.1498
▁루프를	-10.1498
▁리턴	-10.1498
▁막혀서	-10.1498
▁만들수	-10.1498
▁만약에	-10.1498
▁맞나요?	-10.1498
▁매우	-10.1498
▁메세지를	-10.1498
▁메일을	-10.1498
▁반환	-10.1498
▁발생하는데	-10.1498
▁발생하는지	-10.1498
▁방식을	-10.1498
▁법	-10.1498
▁법,"	-10.1498
▁보내고	-10.1498
▁보면서	-10.1498
▁보여주는	-10.1498
▁보이지	-10.1498
▁부탁드립니다.",5	-10.1498
▁분들	-10.1498
▁분명히	-10.1498
▁비교하는	-10.1498
▁비동기	-10.1498
▁사이즈	-10.1498
▁사이즈를	-10.1498
▁사이트에서	-10.1498
▁상태입니다.	-10.1498
▁상황이	-10.1498
▁색상	-10.1498
▁생성된	-10.1498
▁선언하고	-10.1498
▁설명이	-10.1498
▁설치	-10.1498
▁소멸자가	-10.1498
▁소스에서	-10.1498
▁수정해야	-10.1498
▁순차적으로	-10.1498
▁실행되지	-10.1498
▁실행한	-10.1498
▁싶어	-10.1498
▁써도	-10.1498
▁쓰기	-10.1498
▁알고리즘을	-10.1498
▁얼마나	-10.1498
▁없고	-10.1498
▁엔터를	-10.1498
▁영단어	-10.1498
▁예를들면	-10.1498
▁왼쪽	-10.1498
▁이상한	-10.1498
▁인터넷에서	-10.1498
▁일이	-10.1498
▁읽어와서	-10.1498
▁임의로	-10.1498
▁입력받아서	-10.1498
▁입력하는	-10.1498
▁있다는	-10.1498
▁있을까요?",3	-10.1498
▁자리	-10.1498
▁작성할	-10.1498
▁저장한	-10.1498
▁점수	-10.1498
▁제발	-10.1498
▁존재하지	-10.1498
▁주실	-10.1498
▁주어진다.	-10.1498
▁진행	-10.1498
▁책의	-10.1498
▁처리하고	-10.1498
▁처리해야	-10.1498
▁체크	-10.1498
▁출력되게	-10.1498
▁출력되고	-10.1498
▁출력하게	-10.1498
▁출력할	-10.1498
▁컴파일이	-10.1498
▁키워드	-10.1498
▁키워드를	-10.1498
▁타입을	-10.1498
▁테이블을	-10.1498
▁통한	-10.1498
▁표시	-10.1498
▁하나도	-10.1498
▁하면서	-10.1498
▁하위	-10.1498
▁홈페이지를	-10.1498
▁확인을	-10.1498
▁환경은	-10.1498
▁""####..	-10.2452
▁""%d"",	-10.2452
▁""ServerUserUDP	-10.2452
▁""__main__"":	-10.2452
▁""main""	-10.2452
▁""name"":	-10.2452
▁##############	-10.2452
▁$$$.awt.*;	-10.2452
▁'';	-10.2452
▁';	-10.2452
▁'\0')	-10.2452
▁'\t'	-10.2452
▁(4,	-10.2452
▁(HttpURLConnection)	-10.2452
▁(msg.arg1	-10.2452
▁**	-10.2452
▁*head	-10.2452
▁*p	-10.2452
▁//fprintf(fp,	-10.2452
▁100)	-10.2452
▁100,	-10.2452
▁12	-10.2452
▁150,	-10.2452
▁18	-10.2452
▁25	-10.2452
▁30px;""	-10.2452
▁31,	-10.2452
▁3]	-10.2452
▁80,	-10.2452
▁<div>	-10.2452
▁<style>	-10.2452
▁Array();	-10.2452
▁ArrayList();	-10.2452
▁BeautifulSoup(html,	-10.2452
▁Child	-10.2452
▁GetDlgItem(hDlg,	-10.2452
▁IP	-10.2452
▁Log.d(TAG,	-10.2452
▁Main	-10.2452
▁No	-10.2452
▁Schedule	-10.2452
▁Uncaught	-10.2452
▁ViewGroup	-10.2452
▁Y	-10.2452
▁[0,	-10.2452
▁_	-10.2452
▁android.os.Bundle;	-10.2452
▁a의	-10.2452
▁between	-10.2452
▁bird	-10.2452
▁border=""0""	-10.2452
▁b가	-10.2452
▁c)	-10.2452
▁char[]	-10.2452
▁class=""text	-10.2452
▁console	-10.2452
▁contentType=""text/html;	-10.2452
▁cout<<endl;	-10.2452
▁cycle_8(1);	-10.2452
▁cycle_us(149);	-10.2452
▁data를	-10.2452
▁declaration	-10.2452
▁does	-10.2452
▁e);	-10.2452
▁elements	-10.2452
▁enterChoice();	-10.2452
▁err	-10.2452
▁et.getText().toString();	-10.2452
▁event.key	-10.2452
▁filename	-10.2452
▁filter	-10.2452
▁fs	-10.2452
▁graph	-10.2452
▁hello	-10.2452
▁i--;	-10.2452
▁if(	-10.2452
▁include	-10.2452
▁inner	-10.2452
▁input)	-10.2452
▁input;	-10.2452
▁jQuery에서	-10.2452
▁jar	-10.2452
▁key,	-10.2452
▁list*	-10.2452
▁list를	-10.2452
▁main(int	-10.2452
▁may	-10.2452
▁message	-10.2452
▁money	-10.2452
▁named	-10.2452
▁next	-10.2452
▁params)	-10.2452
▁port	-10.2452
▁pos	-10.2452
▁printf	-10.2452
▁ps.	-10.2452
▁pstmt	-10.2452
▁res)	-10.2452
▁res,	-10.2452
▁rs	-10.2452
▁run	-10.2452
▁see	-10.2452
▁show	-10.2452
▁size)	-10.2452
▁socket.io	-10.2452
▁start,	-10.2452
▁str);	-10.2452
▁stream	-10.2452
▁style=""margin-bottom:12px;	-10.2452
▁synchronized	-10.2452
▁type=""submit""	-10.2452
▁type=""text/$$$"">	-10.2452
▁ui-corner-all""	-10.2452
▁ui-widget-content	-10.2452
▁value)	-10.2452
▁values	-10.2452
▁white;	-10.2452
▁width:95%;	-10.2452
▁x1,	-10.2452
▁{0,	-10.2452
▁{u'cc':	-10.2452
▁ᅮ	-10.2452
▁가져올	-10.2452
▁가져옴	-10.2452
▁감사하겠습니다.",3	-10.2452
▁감사합니다.",5	-10.2452
▁값과	-10.2452
▁강의를	-10.2452
▁같습니다	-10.2452
▁개발자입니다.	-10.2452
▁개수가	-10.2452
▁것인가요?	-10.2452
▁게시물	-10.2452
▁결과값을	-10.2452
▁곳에서	-10.2452
▁공백으로	-10.2452
▁공백이	-10.2452
▁괜찮은	-10.2452
▁그래프를	-10.2452
▁그림	-10.2452
▁글자가	-10.2452
▁기반	-10.2452
▁기초	-10.2452
▁날짜를	-10.2452
▁내림차순으로	-10.2452
▁누른	-10.2452
▁다운	-10.2452
▁단	-10.2452
▁담긴	-10.2452
▁답변을	-10.2452
▁데이터는	-10.2452
▁데이터베이스를	-10.2452
▁되는건가요?	-10.2452
▁되어있습니다.	-10.2452
▁드는	-10.2452
▁디폴트	-10.2452
▁뜨고	-10.2452
▁뜨네요.	-10.2452
▁라벨	-10.2452
▁로그	-10.2452
▁로그를	-10.2452
▁로그인을	-10.2452
▁링크를	-10.2452
▁마지막으로	-10.2452
▁막히는	-10.2452
▁만들어진	-10.2452
▁메뉴를	-10.2452
▁메시지가	-10.2452
▁모델	-10.2452
▁모델을	-10.2452
▁무한	-10.2452
▁문서를	-10.2452
▁뭐라고	-10.2452
▁받게	-10.2452
▁받아온	-10.2452
▁보내기	-10.2452
▁부탁드립니다!	-10.2452
▁부트스트랩	-10.2452
▁불구하고	-10.2452
▁사실	-10.2452
▁사용합니다.	-10.2452
▁삭제하는	-10.2452
▁상속	-10.2452
▁상태로	-10.2452
▁생각을	-10.2452
▁생각하고	-10.2452
▁생겨	-10.2452
▁생성자에서	-10.2452
▁선언된	-10.2452
▁소수점	-10.2452
▁소스가	-10.2452
▁소스입니다.	-10.2452
▁순으로	-10.2452
▁스택	-10.2452
▁스트림	-10.2452
▁시작한	-10.2452
▁시키고	-10.2452
▁실행했을	-10.2452
▁쓰레드	-10.2452
▁아는데	-10.2452
▁아마	-10.2452
▁안되는데	-10.2452
▁안되는지	-10.2452
▁애플리케이션	-10.2452
▁어디	-10.2452
▁어플을	-10.2452
▁얻는	-10.2452
▁업데이트	-10.2452
▁없는지	-10.2452
▁연산자	-10.2452
▁연습을	-10.2452
▁예를들어서	-10.2452
▁예외처리	-10.2452
▁오류는	-10.2452
▁오류를	-10.2452
▁오름차순으로	-10.2452
▁오버라이딩	-10.2452
▁오픈	-10.2452
▁외에	-10.2452
▁원인을	-10.2452
▁음악	-10.2452
▁의미가	-10.2452
▁이름:	-10.2452
▁이미지로	-10.2452
▁인해	-10.2452
▁일부	-10.2452
▁일을	-10.2452
▁일정	-10.2452
▁일치하는	-10.2452
▁읽어오는	-10.2452
▁입력받는	-10.2452
▁입력시	-10.2452
▁입력할	-10.2452
▁입력해서	-10.2452
▁있는건가요?	-10.2452
▁자바스크립트	-10.2452
▁자세한	-10.2452
▁자세히	-10.2452
▁작성했습니다.	-10.2452
▁재귀	-10.2452
▁저의	-10.2452
▁저장되어	-10.2452
▁접근을	-10.2452
▁접근이	-10.2452
▁접속하면	-10.2452
▁정렬을	-10.2452
▁정보들을	-10.2452
▁제네릭	-10.2452
▁조건이	-10.2452
▁좋아요	-10.2452
▁좌표	-10.2452
▁좌표를	-10.2452
▁죄송합니다.	-10.2452
▁줄에는	-10.2452
▁지금은	-10.2452
▁책	-10.2452
▁처리가	-10.2452
▁처리할	-10.2452
▁체크하는	-10.2452
▁최대한	-10.2452
▁추가하는	-10.2452
▁카드	-10.2452
▁클래스는	-10.2452
▁클릭했을때	-10.2452
▁키값을	-10.2452
▁패키지를	-10.2452
▁학교	-10.2452
▁한글이	-10.2452
▁한번만	-10.2452
▁함수와	-10.2452
▁해보면	-10.2452
▁해야하나요	-10.2452
▁했을때	-10.2452
▁""color"":1	-10.3505
▁""hello	-10.3505
▁""html.parser"")	-10.3505
▁$$$.util.*;	-10.3505
▁%c	-10.3505
▁%d""	-10.3505
▁%s\n"",	-10.3505
▁'1',	-10.3505
▁'dataSource'	-10.3505
▁(a	-10.3505
▁(int)	-10.3505
▁(int)s.pop();	-10.3505
▁(num	-10.3505
▁(z	-10.3505
▁**kwargs)	-10.3505
▁*p,	-10.3505
▁*s	-10.3505
▁/></th>	-10.3505
▁07:05:00]	-10.3505
▁1))	-10.3505
▁1));	-10.3505
▁1000	-10.3505
▁100;	-10.3505
▁12)	-10.3505
▁121,	-10.3505
▁14	-10.3505
▁16	-10.3505
▁1]],	-10.3505
▁1개의	-10.3505
▁1부터	-10.3505
▁20,	-10.3505
▁21	-10.3505
▁21,	-10.3505
▁22	-10.3505
▁22,	-10.3505
▁2월	-10.3505
▁31	-10.3505
▁31;	-10.3505
▁5:	-10.3505
▁80	-10.3505
▁:)	-10.3505
▁<!----><div	-10.3505
▁</br>	-10.3505
▁</button>	-10.3505
▁</logger>	-10.3505
▁<div><label><input	-10.3505
▁<html	-10.3505
▁<level	-10.3505
▁<logger	-10.3505
▁<th><input	-10.3505
▁<typename	-10.3505
▁@RequestMapping(value	-10.3505
▁BOOL	-10.3505
▁BY	-10.3505
▁Bundle	-10.3505
▁Button(window,	-10.3505
▁Cause:	-10.3505
▁Elements	-10.3505
▁Exception{	-10.3505
▁FALSE);	-10.3505
▁HttpURLConnection	-10.3505
▁If	-10.3505
▁ImageIcon	-10.3505
▁IplImage*	-10.3505
▁LEFT	-10.3505
▁LINE;	-10.3505
▁LayoutInflater	-10.3505
▁Map<String,	-10.3505
▁OutputStream	-10.3505
▁Rectangle	-10.3505
▁Runnable()	-10.3505
▁SQL	-10.3505
▁Set	-10.3505
▁Shape	-10.3505
▁SoSimple	-10.3505
▁Student();	-10.3505
▁Toast.makeText(getApplicationContext(),	-10.3505
▁[JobWorker.java:39]	-10.3505
▁[];	-10.3505
▁__init__(self,	-10.3505
▁a.add(stringStack.peek());	-10.3505
▁a1	-10.3505
▁again()	-10.3505
▁android.view.View;	-10.3505
▁a가	-10.3505
▁black	-10.3505
▁catch(IOException	-10.3505
▁category	-10.3505
▁chapter	-10.3505
▁character	-10.3505
▁click	-10.3505
▁configure	-10.3505
▁container,	-10.3505
▁costs:	-10.3505
▁currentFidelity	-10.3505
▁customAdapter	-10.3505
▁cycle	-10.3505
▁data-role=""""	-10.3505
▁databaseHelper.getAllData());	-10.3505
▁datetime	-10.3505
▁encode	-10.3505
▁encoding=""UTF-8""?>	-10.3505
▁err);	-10.3505
▁etTmp_str	-10.3505
▁etTmp_str.append(etTmp.getText());	-10.3505
▁etTmp_str.delete(etTmp_str.length()-1,	-10.3505
▁etTmp_str.length());	-10.3505
▁for(String	-10.3505
▁getName()	-10.3505
▁goto	-10.3505
▁header	-10.3505
▁height=170></label></div>	-10.3505
▁i))	-10.3505
▁i++	-10.3505
▁iCntRow	-10.3505
▁if(et	-10.3505
▁if(i	-10.3505
▁if문	-10.3505
▁in.close();	-10.3505
▁information	-10.3505
▁javax.swing.GroupLayout.DEFAULT_SIZE,	-10.3505
▁k++)	-10.3505
▁line;	-10.3505
▁listView.setAdapter(customAdapter);	-10.3505
▁logging	-10.3505
▁loop	-10.3505
▁multiprocessing	-10.3505
▁name=""check""	-10.3505
▁newNode;	-10.3505
▁new_node;	-10.3505
▁node*	-10.3505
▁num번	-10.3505
▁o	-10.3505
▁operator	-10.3505
▁p)	-10.3505
▁pageEncoding=""UTF-8""%>	-10.3505
▁password:	-10.3505
▁plt.show()	-10.3505
▁point	-10.3505
▁pop	-10.3505
▁position,	-10.3505
▁position:	-10.3505
▁printMenu();	-10.3505
▁prints	-10.3505
▁px	-10.3505
▁radius	-10.3505
▁range(3):	-10.3505
▁remove	-10.3505
▁req	-10.3505
▁response)	-10.3505
▁results	-10.3505
▁rows	-10.3505
▁run(){	-10.3505
▁schedule_num,	-10.3505
▁score;	-10.3505
▁sizeof(BookData));	-10.3505
▁something	-10.3505
▁src	-10.3505
▁started...(Period)	-10.3505
▁str)	-10.3505
▁system(""cls"");	-10.3505
▁tf	-10.3505
▁time_dif	-10.3505
▁tmp;	-10.3505
▁tmp_m	-10.3505
▁undefined	-10.3505
▁user_name	-10.3505
▁version	-10.3505
▁views	-10.3505
▁was	-10.3505
▁width=180	-10.3505
▁winner	-10.3505
▁x++)	-10.3505
▁year)	-10.3505
▁{type:	-10.3505
▁→	-10.3505
▁가져와	-10.3505
▁감사드리겠습니다.	-10.3505
▁같으면	-10.3505
▁같은데...	-10.3505
▁개발하고	-10.3505
▁개발할	-10.3505
▁개봉	-10.3505
▁검색하는	-10.3505
▁검색해서	-10.3505
▁게시판을	-10.3505
▁경고	-10.3505
▁곳에	-10.3505
▁과제를	-10.3505
▁구문을	-10.3505
▁구조를	-10.3505
▁궁금합니다.",3	-10.3505
▁그것을	-10.3505
▁기반으로	-10.3505
▁기본적으로	-10.3505
▁나누어	-10.3505
▁나는지	-10.3505
▁난	-10.3505
▁내가	-10.3505
▁내부	-10.3505
▁내부에서	-10.3505
▁내부의	-10.3505
▁내용입니다.	-10.3505
▁넣어	-10.3505
▁네이버	-10.3505
▁누를	-10.3505
▁담을	-10.3505
▁대부분의	-10.3505
▁데이터의	-10.3505
▁도무지	-10.3505
▁도중에	-10.3505
▁돌아가는	-10.3505
▁동작하지	-10.3505
▁두고	-10.3505
▁두번	-10.3505
▁들어갈	-10.3505
▁들어온	-10.3505
▁디버깅을	-10.3505
▁따른	-10.3505
▁때의	-10.3505
▁뜨면서	-10.3505
▁로그인이	-10.3505
▁리눅스	-10.3505
▁링크	-10.3505
▁막혔습니다.	-10.3505
▁만들고자	-10.3505
▁말이죠.	-10.3505
▁매개변수	-10.3505
▁메세지가	-10.3505
▁메인에서	-10.3505
▁명시적	-10.3505
▁모르겠는데	-10.3505
▁목록을	-10.3505
▁못해서	-10.3505
▁문자열에	-10.3505
▁문자의	-10.3505
▁문제없이	-10.3505
▁문제인	-10.3505
▁바꿀수	-10.3505
▁바뀌는	-10.3505
▁반대로	-10.3505
▁받기	-10.3505
▁발생하고	-10.3505
▁방법,"안녕하세요.	-10.3505
▁방법좀	-10.3505
▁배우는	-10.3505
▁범위	-10.3505
▁보았습니다.	-10.3505
▁보입니다.	-10.3505
▁봐도	-10.3505
▁분이	-10.3505
▁뷰에	-10.3505
▁블록	-10.3505
▁사람은	-10.3505
▁삭제하고	-10.3505
▁생각한	-10.3505
▁생긴	-10.3505
▁생략	-10.3505
▁소스코드는	-10.3505
▁수식을	-10.3505
▁스레드를	-10.3505
▁스택에	-10.3505
▁시,	-10.3505
▁시작하는	-10.3505
▁실수	-10.3505
▁싶어요	-10.3505
▁쓰나요?	-10.3505
▁아닌지	-10.3505
▁안되네요..	-10.3505
▁안쓰고	-10.3505
▁알려주는	-10.3505
▁알려주실	-10.3505
▁알림	-10.3505
▁어떤게	-10.3505
▁얻고	-10.3505
▁얻을수	-10.3505
▁없다는	-10.3505
▁없을까요??	-10.3505
▁에는	-10.3505
▁에디터를	-10.3505
▁역시	-10.3505
▁연결이	-10.3505
▁열심히	-10.3505
▁영어	-10.3505
▁예시	-10.3505
▁예외	-10.3505
▁예외처리를	-10.3505
▁예제가	-10.3505
▁완전	-10.3505
▁완전히	-10.3505
▁요즘	-10.3505
▁원소	-10.3505
▁위해서는	-10.3505
▁유저가	-10.3505
▁이동	-10.3505
▁이런게	-10.3505
▁이미지와	-10.3505
▁이해하고	-10.3505
▁인덱스를	-10.3505
▁인지	-10.3505
▁입력하세요""	-10.3505
▁입력하시오	-10.3505
▁있나	-10.3505
▁있다.	-10.3505
▁있어도	-10.3505
▁있을까요	-10.3505
▁있을지	-10.3505
▁자기	-10.3505
▁자체가	-10.3505
▁작동	-10.3505
▁적용	-10.3505
▁접속을	-10.3505
▁정작	-10.3505
▁제공하는	-10.3505
▁제외한	-10.3505
▁조회	-10.3505
▁주소값을	-10.3505
▁중인	-10.3505
▁즉,	-10.3505
▁지우고	-10.3505
▁지정된	-10.3505
▁지정한	-10.3505
▁진행이	-10.3505
▁질문,"	-10.3505
▁질문드려요.	-10.3505
▁찾아봤는데	-10.3505
▁책에서	-10.3505
▁처리하는	-10.3505
▁처음에는	-10.3505
▁초기화하는	-10.3505
▁초보라	-10.3505
▁추가하려고	-10.3505
▁추천	-10.3505
▁추출	-10.3505
▁출력한다	-10.3505
▁콘솔에	-10.3505
▁클라이언트에게	-10.3505
▁키보드	-10.3505
▁템플릿	-10.3505
▁틀린	-10.3505
▁파싱하고	-10.3505
▁파이썬	-10.3505
▁파일은	-10.3505
▁프로그램은	-10.3505
▁프로그램의	-10.3505
▁프로세스가	-10.3505
▁필드를	-10.3505
▁하나가	-10.3505
▁하루	-10.3505
▁해야할	-10.3505
▁했는데,	-10.3505
▁형식의	-10.3505
▁화면이	-10.3505
▁![alt	-10.4683
▁![이미지	-10.4683
▁""#####	-10.4683
▁""<input	-10.4683
▁""?"";	-10.4683
▁""\t""	-10.4683
▁""model_class"":""STB"",	-10.4683
▁""select	-10.4683
▁""당신의	-10.4683
▁""탈락"")	-10.4683
▁###	-10.4683
▁#####"",	-10.4683
▁#ifndef	-10.4683
▁$$$.awt.event.*;	-10.4683
▁$$$x.swing.*;	-10.4683
▁$$$에는	-10.4683
▁%.2f	-10.4683
▁%@"",	-10.4683
▁%s"",	-10.4683
▁'')	-10.4683
▁'Feature':	-10.4683
▁'a',	-10.4683
▁'sqlSessionFactory'	-10.4683
▁((x	-10.4683
▁(...)	-10.4683
▁(2,	-10.4683
▁(;	-10.4683
▁(work	-10.4683
▁**질문	-10.4683
▁*=	-10.4683
▁*p;	-10.4683
▁-----------------	-10.4683
▁-3	-10.4683
▁.....	-10.4683
▁.vertical	-10.4683
▁0.0;	-10.4683
▁1),	-10.4683
▁1000;	-10.4683
▁15389-15898/com.oh_biz.oh_works	-10.4683
▁1][j	-10.4683
▁1이	-10.4683
▁2019.09.25	-10.4683
▁2가지	-10.4683
▁3),	-10.4683
▁31)	-10.4683
▁3개	-10.4683
▁404	-10.4683
▁4개의	-10.4683
▁<--	-10.4683
▁</div><!---->	-10.4683
▁<item	-10.4683
▁<tr	-10.4683
▁==>"",	-10.4683
▁@	-10.4683
▁AlertDialog	-10.4683
▁Apache	-10.4683
▁ArrayUtils	-10.4683
▁AttributeError:	-10.4683
▁A라는	-10.4683
▁Bind	-10.4683
▁BookData	-10.4683
▁Buffer	-10.4683
▁Caused	-10.4683
▁Context	-10.4683
▁DWORD	-10.4683
▁DoubleStack.push(op1	-10.4683
▁GUI를	-10.4683
▁IN	-10.4683
▁IntegerSet	-10.4683
▁Map	-10.4683
▁Method)	-10.4683
▁Money	-10.4683
▁MySQL	-10.4683
▁NameError:	-10.4683
▁OK	-10.4683
▁Object],[object	-10.4683
▁PC	-10.4683
▁Parent	-10.4683
▁PhotoImage(file	-10.4683
▁Point2D	-10.4683
▁Postfix	-10.4683
▁QFrame(self)	-10.4683
▁QLineEdit(self)	-10.4683
▁String>	-10.4683
▁StringTokenizer	-10.4683
▁System.out.println(""------------------------------------------------------"");	-10.4683
▁TCP	-10.4683
▁[0,0,0,0,0,0,0,0,0,0],	-10.4683
▁[JobWorker.java:52]	-10.4683
▁__init__	-10.4683
▁after	-10.4683
▁ans	-10.4683
▁any	-10.4683
▁arr;	-10.4683
▁average	-10.4683
▁b:	-10.4683
▁block	-10.4683
▁build	-10.4683
▁by:	-10.4683
▁cerr	-10.4683
▁charset=UTF-8""	-10.4683
▁class=""nav-link""	-10.4683
▁command=end)	-10.4683
▁comp	-10.4683
▁const;	-10.4683
▁context,	-10.4683
▁create	-10.4683
▁custom	-10.4683
▁data2	-10.4683
▁date,	-10.4683
▁decode	-10.4683
▁dishes	-10.4683
▁document	-10.4683
▁done(null,	-10.4683
▁duty	-10.4683
▁e.getMessage());	-10.4683
▁elem	-10.4683
▁end;	-10.4683
▁ended...(Period)	-10.4683
▁error가	-10.4683
▁exit(EXIT_FAILURE);	-10.4683
▁field	-10.4683
▁fields	-10.4683
▁file.	-10.4683
▁fin	-10.4683
▁font-size:	-10.4683
▁for(j	-10.4683
▁frame	-10.4683
▁fstream	-10.4683
▁glTexParameteri(GL_TEXTURE_2D,	-10.4683
▁handler	-10.4683
▁here	-10.4683
▁href=""{{	-10.4683
▁html에서	-10.4683
▁i--)	-10.4683
▁id);	-10.4683
▁id,	-10.4683
▁if(Check.matches(""^.*?\\d$""))	-10.4683
▁illegal	-10.4683
▁implement	-10.4683
▁inflater	-10.4683
▁input)""	-10.4683
▁input,	-10.4683
▁install	-10.4683
▁int(input())	-10.4683
▁int형	-10.4683
▁i가	-10.4683
▁j=0;	-10.4683
▁javax.swing.GroupLayout.PREFERRED_SIZE,	-10.4683
▁js	-10.4683
▁json으로	-10.4683
▁left,	-10.4683
▁len(lists)	-10.4683
▁lists.remove(ran1)	-10.4683
▁loops	-10.4683
▁make	-10.4683
▁maximum	-10.4683
▁mid	-10.4683
▁mode	-10.4683
▁models.CharField(max_length=200)	-10.4683
▁models.CharField(max_length=30)	-10.4683
▁msg,	-10.4683
▁n1	-10.4683
▁nGold	-10.4683
▁need	-10.4683
▁newpy	-10.4683
▁next)	-10.4683
▁number,	-10.4683
▁ofstream	-10.4683
▁onPostExecute(String	-10.4683
▁op2);	-10.4683
▁org.springframework.web.client.RestTemplate	-10.4683
▁parameter	-10.4683
▁part	-10.4683
▁part,	-10.4683
▁promise	-10.4683
▁puts(""┃	-10.4683
▁query	-10.4683
▁r;	-10.4683
▁ran1	-10.4683
▁random.choice(lists)	-10.4683
▁request,	-10.4683
▁request.method	-10.4683
▁required:	-10.4683
▁resolve	-10.4683
▁result);	-10.4683
▁row[i]	-10.4683
▁s,	-10.4683
▁salary	-10.4683
▁salary,	-10.4683
▁scanf(""%d	-10.4683
▁send	-10.4683
▁setDefaultCloseOperation(JFrame.EXIT_ON_CLOSE);	-10.4683
▁setw(15)	-10.4683
▁setw(18	-10.4683
▁sizeof(serveraddr));	-10.4683
▁source	-10.4683
▁startActivity(intent);	-10.4683
▁str1,	-10.4683
▁system	-10.4683
▁taglib	-10.4683
▁task	-10.4683
▁than	-10.4683
▁there	-10.4683
▁this.name	-10.4683
▁this.x	-10.4683
▁this.y	-10.4683
▁title,	-10.4683
▁tk.Button(window,	-10.4683
▁tk.Label(window,text='마음에	-10.4683
▁token	-10.4683
▁u'gb',	-10.4683
▁update	-10.4683
▁url을	-10.4683
▁users	-10.4683
▁utf-8	-10.4683
▁web	-10.4683
▁while(true)	-10.4683
▁while문을	-10.4683
▁white	-10.4683
▁width	-10.4683
▁would	-10.4683
▁write	-10.4683
▁year	-10.4683
▁year;	-10.4683
▁}}	-10.4683
▁±	-10.4683
▁ᅲᅲ",3	-10.4683
▁ᅲᅲ",4	-10.4683
▁┃"");	-10.4683
▁가능하다면	-10.4683
▁같아요.	-10.4683
▁객체는	-10.4683
▁거기에	-10.4683
▁걸리는	-10.4683
▁경우의	-10.4683
▁공백	-10.4683
▁공백을	-10.4683
▁공부중인	-10.4683
▁공부하면서	-10.4683
▁관해	-10.4683
▁구현한	-10.4683
▁그건	-10.4683
▁그리고,	-10.4683
▁글의	-10.4683
▁길이	-10.4683
▁끝	-10.4683
▁끝난	-10.4683
▁끝을	-10.4683
▁나오는지	-10.4683
▁나와야하는데	-10.4683
▁나와요	-10.4683
▁나왔습니다.	-10.4683
▁난수를	-10.4683
▁남깁니다.	-10.4683
▁넣으려고	-10.4683
▁넣은	-10.4683
▁놓은	-10.4683
▁눌러주세요')	-10.4683
▁달라서	-10.4683
▁담아	-10.4683
▁대해서는	-10.4683
▁데이터베이스에	-10.4683
▁도와주세요.	-10.4683
▁동영상을	-10.4683
▁되네요.	-10.4683
▁되서	-10.4683
▁되지만	-10.4683
▁됩니다	-10.4683
▁들어,	-10.4683
▁들어가면	-10.4683
▁들어가지	-10.4683
▁들어있는	-10.4683
▁디버깅	-10.4683
▁뜨게	-10.4683
▁뜨네요..	-10.4683
▁뜹니다	-10.4683
▁랜덤	-10.4683
▁런타임	-10.4683
▁레퍼런스를	-10.4683
▁로직을	-10.4683
▁마우스를	-10.4683
▁만들면	-10.4683
▁만들었는데요.	-10.4683
▁말이	-10.4683
▁맞지	-10.4683
▁메모리를	-10.4683
▁메모리에	-10.4683
▁메소드의	-10.4683
▁면의	-10.4683
▁명령어를	-10.4683
▁모르는게	-10.4683
▁문	-10.4683
▁문법	-10.4683
▁바꿔주는	-10.4683
▁바탕으로	-10.4683
▁받아오고	-10.4683
▁발생하지	-10.4683
▁방문자	-10.4683
▁방법인지	-10.4683
▁방식	-10.4683
▁배수를	-10.4683
▁배열은	-10.4683
▁버튼이	-10.4683
▁버퍼	-10.4683
▁번만	-10.4683
▁보이게	-10.4683
▁부모클래스의	-10.4683
▁부탁드립니다.",3	-10.4683
▁불러올	-10.4683
▁불러와	-10.4683
▁비교해서	-10.4683
▁비트코인	-10.4683
▁빌드	-10.4683
▁사용되는	-10.4683
▁사용하기	-10.4683
▁사용해도	-10.4683
▁사이트가	-10.4683
▁생각보다	-10.4683
▁생각에는	-10.4683
▁생각하는	-10.4683
▁생각했는데	-10.4683
▁생기는	-10.4683
▁생깁니다.	-10.4683
▁생성한	-10.4683
▁생성할	-10.4683
▁생성합니다.	-10.4683
▁서버는	-10.4683
▁선언한	-10.4683
▁선언할	-10.4683
▁선택된	-10.4683
▁선택입니다."")	-10.4683
▁선택하는	-10.4683
▁설명좀	-10.4683
▁설명해	-10.4683
▁설정했습니다.	-10.4683
▁성적을	-10.4683
▁소켓을	-10.4683
▁수정을	-10.4683
▁스크립트를	-10.4683
▁스튜디오에서	-10.4683
▁시에	-10.4683
▁시키면	-10.4683
▁쓰는지	-10.4683
▁쓰려고	-10.4683
▁아나콘다	-10.4683
▁않네요..	-10.4683
▁않습니다	-10.4683
▁알려주세요!	-10.4683
▁알아내는	-10.4683
▁액티비티	-10.4683
▁양의	-10.4683
▁어떤걸	-10.4683
▁어려운	-10.4683
▁언어를	-10.4683
▁얼마	-10.4683
▁없나요?,"	-10.4683
▁에러에	-10.4683
▁역순으로	-10.4683
▁연동	-10.4683
▁예외를	-10.4683
▁오늘	-10.4683
▁웹에	-10.4683
▁웹페이지를	-10.4683
▁위치가	-10.4683
▁윈도우에서	-10.4683
▁이나	-10.4683
▁이런식의	-10.4683
▁이름,	-10.4683
▁이미지의	-10.4683
▁이부분이	-10.4683
▁이에	-10.4683
▁이해한	-10.4683
▁인스턴스가	-10.4683
▁인스턴스를	-10.4683
▁입력:	-10.4683
▁입력값을	-10.4683
▁입력받고	-10.4683
▁입출력	-10.4683
▁있는데요,	-10.4683
▁있더라구요.	-10.4683
▁있을까	-10.4683
▁자료가	-10.4683
▁자료구조	-10.4683
▁자주	-10.4683
▁자체를	-10.4683
▁작성된	-10.4683
▁저도	-10.4683
▁저장해서	-10.4683
▁전달할	-10.4683
▁전송하는	-10.4683
▁점	-10.4683
▁점수를	-10.4683
▁접속한	-10.4683
▁정의되어	-10.4683
▁정의할	-10.4683
▁정적	-10.4683
▁제거하고	-10.4683
▁제거하는	-10.4683
▁제이쿼리	-10.4683
▁존재	-10.4683
▁존재하는지	-10.4683
▁주석을	-10.4683
▁줄은	-10.4683
▁중,	-10.4683
▁중복되는	-10.4683
▁진짜	-10.4683
▁질문입니다.,"	-10.4683
▁질문좀	-10.4683
▁참조	-10.4683
▁찾아보고	-10.4683
▁책에	-10.4683
▁최근에	-10.4683
▁추가적으로	-10.4683
▁추출하여	-10.4683
▁컴퓨터	-10.4683
▁크롬	-10.4683
▁클라이언트는	-10.4683
▁클래스로	-10.4683
▁클래스명	-10.4683
▁타입으로	-10.4683
▁태그가	-10.4683
▁페이지의	-10.4683
▁포지션	-10.4683
▁포함되어	-10.4683
▁폰트	-10.4683
▁풀고	-10.4683
▁필요가	-10.4683
▁필요합니다.	-10.4683
▁하고자	-10.4683
▁하나는	-10.4683
▁하다보니	-10.4683
▁하던데	-10.4683
▁하도록	-10.4683
▁하지만,	-10.4683
▁학생의	-10.4683
▁한줄씩	-10.4683
▁합을	-10.4683
▁합쳐서	-10.4683
▁해결을	-10.4683
▁해결하면	-10.4683
▁해보려고	-10.4683
▁해야되나요?	-10.4683
▁해야될까요?	-10.4683
▁행을	-10.4683
▁호출하면	-10.4683
▁확인하기	-10.4683
▁효율적인	-10.4683
▁!==	-10.6018
▁""##########	-10.6018
▁""%d	-10.6018
▁""<tr	-10.6018
▁""File	-10.6018
▁""POST"",	-10.6018
▁""\n"");	-10.6018
▁""hello"";	-10.6018
▁####	-10.6018
▁$$$($$$)	-10.6018
▁$$$,	-10.6018
▁$$$가	-10.6018
▁'''코드'''	-10.6018
▁'/'	-10.6018
▁'\0';	-10.6018
▁'c',	-10.6018
▁'class':	-10.6018
▁'r')	-10.6018
▁(2)	-10.6018
▁(JSONException	-10.6018
▁(JSONObject)	-10.6018
▁(PINA_REG.bit0	-10.6018
▁(char	-10.6018
▁(char*)malloc(20*(sizeof(char)));	-10.6018
▁(id	-10.6018
▁(leftt	-10.6018
▁(node	-10.6018
▁(p1	-10.6018
▁(productNum	-10.6018
▁*start_nap_m);	-10.6018
▁*this;	-10.6018
▁--fallback-to-build	-10.6018
▁-1:	-10.6018
▁.4em;"">	-10.6018
▁//#include	-10.6018
▁//int	-10.6018
▁0.0	-10.6018
▁02:50:19.700	-10.6018
▁02:50:19.701	-10.6018
▁0보다	-10.6018
▁0부터	-10.6018
▁10:	-10.6018
▁12:00:00	-10.6018
▁1st	-10.6018
▁1로	-10.6018
▁2016-09-20	-10.6018
▁24	-10.6018
▁250,	-10.6018
▁2를	-10.6018
▁3이	-10.6018
▁4),	-10.6018
▁40,	-10.6018
▁400	-10.6018
▁4]	-10.6018
▁4를	-10.6018
▁6)	-10.6018
▁60	-10.6018
▁81,	-10.6018
▁<%@page	-10.6018
▁</nav>	-10.6018
▁</section>	-10.6018
▁<ImageView	-10.6018
▁<ctime>	-10.6018
▁<fstream>	-10.6018
▁<mvc:exclude-mapping	-10.6018
▁<style	-10.6018
▁<tbody>	-10.6018
▁A,	-10.6018
▁ActionListener()	-10.6018
▁ArrayList를	-10.6018
▁Base	-10.6018
▁BufferedImage	-10.6018
▁DDRA_REG.bit0	-10.6018
▁Document	-10.6018
▁Enter	-10.6018
▁Get	-10.6018
▁Image	-10.6018
▁InputStream을	-10.6018
▁It	-10.6018
▁JSONArray	-10.6018
▁JSON을	-10.6018
▁LIKE	-10.6018
▁Meta:	-10.6018
▁Model	-10.6018
▁MongoDB	-10.6018
▁ORDER	-10.6018
▁PUBLIC	-10.6018
▁RequestMethod.GET)	-10.6018
▁Root	-10.6018
▁SUB;	-10.6018
▁TABLE	-10.6018
▁Type	-10.6018
▁URL이	-10.6018
▁WINAPI	-10.6018
▁[$$$	-10.6018
▁['a',	-10.6018
▁[1]	-10.6018
▁[4]:	-10.6018
▁[7,	-10.6018
▁[],	-10.6018
▁[scrapy]	-10.6018
▁[{	-10.6018
▁a)	-10.6018
▁a2	-10.6018
▁a_row;	-10.6018
▁abstract	-10.6018
▁action;	-10.6018
▁activeNote[pitch]	-10.6018
▁actually	-10.6018
▁address	-10.6018
▁aircraft_x	-10.6018
▁android	-10.6018
▁android.widget.TextView;	-10.6018
▁app.js	-10.6018
▁auto;	-10.6018
▁b);	-10.6018
▁background-color:	-10.6018
▁background:	-10.6018
▁ble	-10.6018
▁book	-10.6018
▁border-bottom:	-10.6018
▁border:1px	-10.6018
▁border='1'	-10.6018
▁buffer;	-10.6018
▁builder	-10.6018
▁child	-10.6018
▁choice2	-10.6018
▁class=""nav-item	-10.6018
▁class='col-md-2'	-10.6018
▁col[i]	-10.6018
▁computer))	-10.6018
▁con	-10.6018
▁console.log('[log]	-10.6018
▁copy	-10.6018
▁cost	-10.6018
▁count+=1	-10.6018
▁cursor.execute(sql)	-10.6018
▁db)	-10.6018
▁dc	-10.6018
▁delay(500);	-10.6018
▁dialog	-10.6018
▁directory	-10.6018
▁driver.page_source	-10.6018
▁during	-10.6018
▁e.preventDefault();	-10.6018
▁e:	-10.6018
▁etTmp.setText(etTmp_str	-10.6018
▁even	-10.6018
▁event.type	-10.6018
▁expression	-10.6018
▁failed	-10.6018
▁for문에서	-10.6018
▁for문이	-10.6018
▁fp	-10.6018
▁friend	-10.6018
▁getch();	-10.6018
▁gotoxy(Enemy[i].x	-10.6018
▁gotoxy(mx,	-10.6018
▁gps	-10.6018
▁how	-10.6018
▁i<10;	-10.6018
▁id를	-10.6018
▁images	-10.6018
▁initialize();	-10.6018
▁input(""Enter	-10.6018
▁instanceof	-10.6018
▁isxmas	-10.6018
▁j)	-10.6018
▁j++;	-10.6018
▁java.lang.NoClassDefFoundError:	-10.6018
▁java.util.ArrayList;	-10.6018
▁javax.swing.GroupLayout.PREFERRED_SIZE)	-10.6018
▁k;	-10.6018
▁keyup	-10.6018
▁lab	-10.6018
▁link	-10.6018
▁linked	-10.6018
▁list에	-10.6018
▁list의	-10.6018
▁m)	-10.6018
▁main():	-10.6018
▁match	-10.6018
▁matplotlib	-10.6018
▁max)	-10.6018
▁max_h	-10.6018
▁max_m	-10.6018
▁method=""post"">	-10.6018
▁name=""""	-10.6018
▁name=""dataSource""	-10.6018
▁node;	-10.6018
▁nodeptr	-10.6018
▁none;	-10.6018
▁nullptr;	-10.6018
▁numOfPage	-10.6018
▁number:	-10.6018
▁ny	-10.6018
▁n개의	-10.6018
▁obj)	-10.6018
▁our	-10.6018
▁pad_height	-10.6018
▁parameters	-10.6018
▁pd	-10.6018
▁php	-10.6018
▁pop()	-10.6018
▁press	-10.6018
▁print('당신은{},	-10.6018
▁printList(L);	-10.6018
▁printf(""두	-10.6018
▁productNum;	-10.6018
▁project	-10.6018
▁raise	-10.6018
▁range(0,	-10.6018
▁result2	-10.6018
▁resultCode,	-10.6018
▁row;	-10.6018
▁sb	-10.6018
▁sc.nextLine();	-10.6018
▁search_queue	-10.6018
▁selected	-10.6018
▁size,	-10.6018
▁st.nextToken();	-10.6018
▁stickiesArray	-10.6018
▁sticky	-10.6018
▁str;	-10.6018
▁strtok(NULL,	-10.6018
▁symbol	-10.6018
▁sympy	-10.6018
▁target	-10.6018
▁target);	-10.6018
▁temp)	-10.6018
▁template<class	-10.6018
▁this->name	-10.6018
▁threw	-10.6018
▁title:	-10.6018
▁tmp_h	-10.6018
▁urlopen	-10.6018
▁used	-10.6018
▁v8::FunctionTemplate::New(isolate,	-10.6018
▁val[i]	-10.6018
▁value[i]	-10.6018
▁wcout	-10.6018
▁window.mainloop()	-10.6018
▁x1	-10.6018
▁x[i];	-10.6018
▁xmlns:android=""http://schemas.android.com/apk/res/android""	-10.6018
▁youtube	-10.6018
▁가격	-10.6018
▁가격을	-10.6018
▁가리키게	-10.6018
▁감사드립니다.	-10.6018
▁같을	-10.6018
▁개념이	-10.6018
▁개행	-10.6018
▁거기서	-10.6018
▁거꾸로	-10.6018
▁거죠?	-10.6018
▁건데	-10.6018
▁것까지는	-10.6018
▁것이라고	-10.6018
▁게시글	-10.6018
▁경고가	-10.6018
▁경우도	-10.6018
▁과제	-10.6018
▁관련한	-10.6018
▁관리하는	-10.6018
▁괄호를	-10.6018
▁구글에	-10.6018
▁구문	-10.6018
▁구문이	-10.6018
▁구분해서	-10.6018
▁구하고	-10.6018
▁궁금합니다.",5	-10.6018
▁글자를	-10.6018
▁끝까지	-10.6018
▁끝에	-10.6018
▁나눠서	-10.6018
▁나름대로	-10.6018
▁나옵니다	-10.6018
▁나와요.	-10.6018
▁나중에	-10.6018
▁나타내고	-10.6018
▁난수	-10.6018
▁누가	-10.6018
▁눌렀을때	-10.6018
▁다음의	-10.6018
▁단순한	-10.6018
▁대기시간	-10.6018
▁대체	-10.6018
▁데이터베이스	-10.6018
▁도통	-10.6018
▁돌리면	-10.6018
▁동기화	-10.6018
▁동작	-10.6018
▁되질	-10.6018
▁될것	-10.6018
▁될지	-10.6018
▁두개가	-10.6018
▁둘이	-10.6018
▁들어가서	-10.6018
▁듯	-10.6018
▁등으로	-10.6018
▁디렉토리를	-10.6018
▁때까지	-10.6018
▁띄우고	-10.6018
▁렌더링	-10.6018
▁로컬	-10.6018
▁루트	-10.6018
▁루틴	-10.6018
▁리스너	-10.6018
▁마""<<endl;	-10.6018
▁마다	-10.6018
▁마우스	-10.6018
▁마찬가지로	-10.6018
▁만드려고	-10.6018
▁만들어보고	-10.6018
▁만들지	-10.6018
▁맞춰서	-10.6018
▁메모리의	-10.6018
▁메서드	-10.6018
▁명령어가	-10.6018
▁모르겠네요...	-10.6018
▁못했습니다.	-10.6018
▁문법이	-10.6018
▁문을	-10.6018
▁문제인데	-10.6018
▁뭘까요?	-10.6018
▁바꾸려면	-10.6018
▁바뀌게	-10.6018
▁바로는	-10.6018
▁밖에서	-10.6018
▁밖으로	-10.6018
▁반드시	-10.6018
▁반복문으로	-10.6018
▁받아와서	-10.6018
▁발생하여	-10.6018
▁방법인가요?	-10.6018
▁방향을	-10.6018
▁배열과	-10.6018
▁배웠습니다.	-10.6018
▁번호가	-10.6018
▁법을	-10.6018
▁변경하는	-10.6018
▁변하는	-10.6018
▁변환해서	-10.6018
▁보낸	-10.6018
▁보는데	-10.6018
▁보았는데	-10.6018
▁보여주고	-10.6018
▁복사하여	-10.6018
▁복사해서	-10.6018
▁봤습니다.	-10.6018
▁부족해서	-10.6018
▁분들은	-10.6018
▁분은	-10.6018
▁뷰를	-10.6018
▁브라우저	-10.6018
▁블록을	-10.6018
▁비밀번호	-10.6018
▁비슷하게	-10.6018
▁비트맵	-10.6018
▁빈도	-10.6018
▁뽑고	-10.6018
▁뽑은	-10.6018
▁사람들이	-10.6018
▁사용자로부터	-10.6018
▁사용중입니다.	-10.6018
▁사진은	-10.6018
▁사진처럼	-10.6018
▁삭제를	-10.6018
▁상관	-10.6018
▁생각했습니다.	-10.6018
▁생기고	-10.6018
▁생성자는	-10.6018
▁생성하고,	-10.6018
▁서버에서는	-10.6018
▁서버와	-10.6018
▁소스의	-10.6018
▁순서	-10.6018
▁순서가	-10.6018
▁순서에	-10.6018
▁숫자만	-10.6018
▁스트링	-10.6018
▁식을	-10.6018
▁실행되고	-10.6018
▁실행했을때	-10.6018
▁싶습니다.",3	-10.6018
▁싶으면	-10.6018
▁쓰는건가요?	-10.6018
▁쓰레드에서	-10.6018
▁쓸때	-10.6018
▁아니라,	-10.6018
▁아래로	-10.6018
▁안에서는	-10.6018
▁알게	-10.6018
▁알려주세요.	-10.6018
▁알수	-10.6018
▁알파벳을	-10.6018
▁암호화된	-10.6018
▁어려움을	-10.6018
▁없애고	-10.6018
▁없었습니다.	-10.6018
▁엑셀로	-10.6018
▁여기에서	-10.6018
▁여러번	-10.6018
▁연결을	-10.6018
▁연산	-10.6018
▁열	-10.6018
▁열어서	-10.6018
▁영역을	-10.6018
▁오래	-10.6018
▁오른쪽에	-10.6018
▁오차가	-10.6018
▁외부에서	-10.6018
▁요소가	-10.6018
▁원소로	-10.6018
▁웹사이트에서	-10.6018
▁웹페이지	-10.6018
▁위는	-10.6018
▁의견	-10.6018
▁이것	-10.6018
▁이것도	-10.6018
▁이것은	-10.6018
▁이것이	-10.6018
▁이럴	-10.6018
▁이루어진	-10.6018
▁이름과	-10.6018
▁이름으로	-10.6018
▁이름은	-10.6018
▁이전에	-10.6018
▁인데요.	-10.6018
▁인덱스	-10.6018
▁인덱스의	-10.6018
▁인터넷에	-10.6018
▁인터페이스를	-10.6018
▁일때	-10.6018
▁일반적으로	-10.6018
▁일반적인	-10.6018
▁일어나지	-10.6018
▁읽어들이기	-10.6018
▁입력"")	-10.6018
▁입력하시오:	-10.6018
▁있나요??	-10.6018
▁있던데	-10.6018
▁있으며	-10.6018
▁작성시	-10.6018
▁작성을	-10.6018
▁작성해야	-10.6018
▁저게	-10.6018
▁저기	-10.6018
▁저런식으로	-10.6018
▁저희	-10.6018
▁적절한	-10.6018
▁전역변수	-10.6018
▁접근할	-10.6018
▁정도로	-10.6018
▁정렬)	-10.6018
▁정렬이	-10.6018
▁정렬하는	-10.6018
▁정보는	-10.6018
▁정상적인	-10.6018
▁정수가	-10.6018
▁정의된	-10.6018
▁정의한	-10.6018
▁정해진	-10.6018
▁정확하게	-10.6018
▁종료되는	-10.6018
▁종종	-10.6018
▁좋겠습니다.	-10.6018
▁좋을	-10.6018
▁주소와	-10.6018
▁줄의	-10.6018
▁중간	-10.6018
▁지도	-10.6018
▁지식이	-10.6018
▁지우려고	-10.6018
▁지정해서	-10.6018
▁짜는	-10.6018
▁쪽	-10.6018
▁쪽에	-10.6018
▁참고	-10.6018
▁찾아보니까	-10.6018
▁채팅을	-10.6018
▁처음부터	-10.6018
▁처음으로	-10.6018
▁체크박스가	-10.6018
▁초보라서	-10.6018
▁초보자라	-10.6018
▁최대값	-10.6018
▁최댓값	-10.6018
▁최소	-10.6018
▁출력(자동	-10.6018
▁출력되지	-10.6018
▁출력할때	-10.6018
▁출력해	-10.6018
▁카메라	-10.6018
▁카운트	-10.6018
▁컴퓨터는{}	-10.6018
▁코드도	-10.6018
▁콘테이너에	-10.6018
▁콘텐츠를	-10.6018
▁콜백함수를	-10.6018
▁큐	-10.6018
▁큐에	-10.6018
▁클래스와	-10.6018
▁클릭하고	-10.6018
▁키워드가	-10.6018
▁템플릿을	-10.6018
▁특정한	-10.6018
▁파일들을	-10.6018
▁포문을	-10.6018
▁포트	-10.6018
▁포트를	-10.6018
▁포틀릿	-10.6018
▁포함한	-10.6018
▁폴더에	-10.6018
▁프레임을	-10.6018
▁프로젝트에서	-10.6018
▁프린트	-10.6018
▁하게되면	-10.6018
▁하는거	-10.6018
▁하니까	-10.6018
▁하더라구요.	-10.6018
▁하세요.	-10.6018
▁하죠?	-10.6018
▁할까요	-10.6018
▁할당을	-10.6018
▁할려고	-10.6018
▁할려면	-10.6018
▁함	-10.6018
▁함수나	-10.6018
▁해결방법을	-10.6018
▁해결해야할지	-10.6018
▁해보니까	-10.6018
▁해야하는	-10.6018
▁행렬	-10.6018
▁호출을	-10.6018
▁혼자	-10.6018
▁혼자서	-10.6018
▁확인하고	-10.6018
▁활용하여	-10.6018
▁효과를	-10.6018
▁""####################""	-10.756
▁""-""	-10.756
▁"":	-10.756
▁""<a	-10.756
▁""<button	-10.756
▁""CLOCKS_PER_SEC	-10.756
▁""New	-10.756
▁""TIME(SEC)	-10.756
▁""a"":	-10.756
▁""c"":	-10.756
▁""data"":	-10.756
▁""message"":	-10.756
▁""update	-10.756
▁""when"":	-10.756
▁"$$$,	-10.756
▁#####	-10.756
▁$	-10.756
▁$$$에서도	-10.756
▁$$$이	-10.756
▁$$$파일을	-10.756
▁$(""#gnb	-10.756
▁$('#output'	-10.756
▁%d:%02d	-10.756
▁&&l_loop,	-10.756
▁&bitmapInfoHeader);	-10.756
▁&n);	-10.756
▁'))	-10.756
▁'*':	-10.756
▁'.'	-10.756
▁'A	-10.756
▁'Bb',	-10.756
▁'b'	-10.756
▁'driverClassName'	-10.756
▁'q')	-10.756
▁'test',	-10.756
▁(&record),	-10.756
▁(NODE	-10.756
▁(SOCKADDR	-10.756
▁(SQLException	-10.756
▁(String	-10.756
▁(String)	-10.756
▁(currentFidelity	-10.756
▁(data)	-10.756
▁(map[i	-10.756
▁(p1->order	-10.756
▁(req,	-10.756
▁(right	-10.756
▁(user	-10.756
▁(where	-10.756
▁(예금주	-10.756
▁*>	-10.756
▁--module=C:\dev\mall\mall-back\node_modules\bcrypt\lib\binding\bcrypt_lib.node	-10.756
▁--module_name=bcrypt_lib	-10.756
▁--module_path=C:\dev\mall\mall-back\node_modules\bcrypt\lib\binding	-10.756
▁--napi_build_version=0	-10.756
▁--napi_version=3	-10.756
▁--node_abi_napi=napi	-10.756
▁-1을	-10.756
▁-7	-10.756
▁..##"",	-10.756
▁.addPreferredGap(javax.swing.LayoutStyle.ComponentPlacement.RELATED)	-10.756
▁//현재	-10.756
▁0.0,	-10.756
▁0.1;	-10.756
▁0.5	-10.756
▁0],	-10.756
▁0}	-10.756
▁100%	-10.756
▁1000);	-10.756
▁11;	-10.756
▁13,	-10.756
▁15);	-10.756
▁18,	-10.756
▁1과	-10.756
▁1의	-10.756
▁200,	-10.756
▁23	-10.756
▁24)	-10.756
▁28	-10.756
▁2][nx	-10.756
▁2nd	-10.756
▁30);	-10.756
▁33	-10.756
▁3개를	-10.756
▁40	-10.756
▁4096	-10.756
▁50;	-10.756
▁55	-10.756
▁6.	-10.756
▁60,	-10.756
▁69	-10.756
▁6:	-10.756
▁6]	-10.756
▁7):	-10.756
▁7.	-10.756
▁70	-10.756
▁8:	-10.756
▁</tbody>	-10.756
▁<title></title>	-10.756
▁?>	-10.756
▁??	-10.756
▁@Autowired	-10.756
▁@Nullable	-10.756
▁@param	-10.756
▁Array	-10.756
▁ArrayList<String>();	-10.756
▁ArrayList의	-10.756
▁Car();	-10.756
▁Car{	-10.756
▁Connection	-10.756
▁Connection(2)-127.0.0.1]	-10.756
▁ContentFidelity	-10.756
▁DatabaseHelper	-10.756
▁DatagramPacket	-10.756
▁DatagramPacket(sendBuffer,	-10.756
▁Derived	-10.756
▁Do	-10.756
▁E	-10.756
▁ExtraPrice	-10.756
▁FALSE,	-10.756
▁Failed	-10.756
▁FileOutputStream	-10.756
▁For	-10.756
▁Fragment	-10.756
▁FuncPtr	-10.756
▁FuncPtr2	-10.756
▁Google	-10.756
▁Gradle	-10.756
▁Graphics	-10.756
▁Handler	-10.756
▁ID,	-10.756
▁In	-10.756
▁Index	-10.756
▁InputStreamReader(System.in));	-10.756
▁IntegerSet&	-10.756
▁L->head;	-10.756
▁Message	-10.756
▁MyClass	-10.756
▁NULL){	-10.756
▁NullPointerException	-10.756
▁Number,	-10.756
▁ON	-10.756
▁Object[][]	-10.756
▁PeopleArray->total_waiting_time	-10.756
▁PreparedStatement	-10.756
▁Property	-10.756
▁PropertyAccessException	-10.756
▁PropertyAccessExceptions	-10.756
▁Runnable	-10.756
▁SOCKET_ERROR)	-10.756
▁STUDENT	-10.756
▁SetColor(WHITE);	-10.756
▁Solution	-10.756
▁System.out.print(j);	-10.756
▁System.out.print(stringStack.pop()	-10.756
▁System.out.printf(""\nit	-10.756
▁System.out.println(""Enter	-10.756
▁System.out.println(a);	-10.756
▁Text	-10.756
▁URL을	-10.756
▁UnicodeDecodeError:	-10.756
▁Visual	-10.756
▁VoteNum	-10.756
▁WebActivity	-10.756
▁[2016-04-04	-10.756
▁[2]	-10.756
▁[RMI	-10.756
▁[[-1,	-10.756
▁\n	-10.756
▁\t"";	-10.756
▁_delay_us(149);	-10.756
▁`if	-10.756
▁absolute;	-10.756
▁actmode	-10.756
▁age:	-10.756
▁aircraft_y	-10.756
▁ajax를	-10.756
▁android.util.Log;	-10.756
▁android.widget.Button;	-10.756
▁ans;	-10.756
▁answer)	-10.756
▁application	-10.756
▁are:	-10.756
▁arr[],	-10.756
▁available	-10.756
▁before	-10.756
▁bigint(11),	-10.756
▁blank	-10.756
▁blue	-10.756
▁bootstrap	-10.756
▁buf	-10.756
▁buff	-10.756
▁bytes	-10.756
▁b는	-10.756
▁cast	-10.756
▁center;	-10.756
▁class=""abr"">	-10.756
▁class=""blind"">내용보기</span></a>	-10.756
▁class=""btn-text""><span	-10.756
▁class=""check-label	-10.756
▁class=""icon-bar""></span>	-10.756
▁class='row'	-10.756
▁clntPort);	-10.756
▁clock_t	-10.756
▁close	-10.756
▁cmd	-10.756
▁code,	-10.756
▁code[Math.floor(Math.random()*code.length)];	-10.756
▁coding:	-10.756
▁computer	-10.756
▁config	-10.756
▁console.error(err);	-10.756
▁console.log(err);	-10.756
▁content=""text/html;	-10.756
▁content=""width=device-width,	-10.756
▁contents	-10.756
▁context)	-10.756
▁corresponding	-10.756
▁count);	-10.756
▁count를	-10.756
▁dao	-10.756
▁data-ng-click=""collapseNavbar()""	-10.756
▁day;	-10.756
▁declared	-10.756
▁define	-10.756
▁delay	-10.756
▁display	-10.756
▁doInBackground(String...	-10.756
▁dollar	-10.756
▁dy;	-10.756
▁each	-10.756
▁encoding=""utf-8""?>	-10.756
▁endif	-10.756
▁err;	-10.756
▁except:	-10.756
▁exception;	-10.756
▁failed:	-10.756
▁failed;	-10.756
▁false가	-10.756
▁files	-10.756
▁findViewById(	-10.756
▁first,	-10.756
▁following	-10.756
▁for(Integer	-10.756
▁format	-10.756
▁for문으로	-10.756
▁fragment	-10.756
▁func	-10.756
▁fw	-10.756
▁github	-10.756
▁gp.output(11,	-10.756
▁gp.output(12,	-10.756
▁gui	-10.756
▁handling	-10.756
▁here.	-10.756
▁href=""#a""	-10.756
▁i,j;	-10.756
▁i<100;	-10.756
▁id가	-10.756
▁if(expr.get(i)	-10.756
▁incompatible	-10.756
▁inp	-10.756
▁interface	-10.756
▁invoking	-10.756
▁iobyte	-10.756
▁iterator	-10.756
▁its	-10.756
▁i를	-10.756
▁jar파일을	-10.756
▁javascript	-10.756
▁jquery를	-10.756
▁just	-10.756
▁keys	-10.756
▁label2	-10.756
▁largest	-10.756
▁lat	-10.756
▁left;	-10.756
▁len);	-10.756
▁limit	-10.756
▁listener	-10.756
▁log4jdbc.spylogdelegator.name.	-10.756
▁logged	-10.756
▁logger.log(Level.SEVERE,	-10.756
▁lon	-10.756
▁long으로	-10.756
▁low	-10.756
▁lst	-10.756
▁m,	-10.756
▁mConnectFlag	-10.756
▁mac	-10.756
▁malloc(sizeof(int	-10.756
▁many	-10.756
▁map)	-10.756
▁map[i	-10.756
▁math	-10.756
▁models.$$$	-10.756
▁models.TextField()	-10.756
▁module	-10.756
▁money;	-10.756
▁monte_carlo(the_list)	-10.756
▁multiple	-10.756
▁mysql에	-10.756
▁name=""viewport""	-10.756
▁names	-10.756
▁node.js로	-10.756
▁node.js와	-10.756
▁npm	-10.756
▁null이	-10.756
▁num3	-10.756
▁nx	-10.756
▁n이	-10.756
▁only	-10.756
▁opacity:	-10.756
▁options	-10.756
▁org.springframework.beans.MethodInvocationException:	-10.756
▁org.springframework.beans.PropertyBatchUpdateException;	-10.756
▁p1,	-10.756
▁p1->link;	-10.756
▁p1->order;	-10.756
▁p2->coefficient;	-10.756
▁p2->link;	-10.756
▁p2->order)	-10.756
▁paramMap[""pValue""]	-10.756
▁parameter를	-10.756
▁params	-10.756
▁people	-10.756
▁phead;	-10.756
▁pip	-10.756
▁place	-10.756
▁pointer	-10.756
▁price;	-10.756
▁printf(""%s\n"",	-10.756
▁printf(""in	-10.756
▁processing	-10.756
▁prop	-10.756
▁properties	-10.756
▁provide	-10.756
▁pstr	-10.756
▁pstr이	-10.756
▁r)	-10.756
▁range(5):	-10.756
▁reading	-10.756
▁receiveString	-10.756
▁receiveString);	-10.756
▁records	-10.756
▁recordsize	-10.756
▁remove_node(&head,	-10.756
▁requires	-10.756
▁resultCode	-10.756
▁row[23]	-10.756
▁rows)	-10.756
▁s1	-10.756
▁s2	-10.756
▁salary;	-10.756
▁sc.next();	-10.756
▁scanf(""	-10.756
▁search	-10.756
▁seat1	-10.756
▁seat2	-10.756
▁seat3	-10.756
▁seat4	-10.756
▁seat5	-10.756
▁self.conn.execute(""insert	-10.756
▁self.left	-10.756
▁self.right	-10.756
▁sendBuffer.length,	-10.756
▁sequelize	-10.756
▁setTimeout(function()	-10.756
▁setw(16	-10.756
▁short	-10.756
▁show();	-10.756
▁size_t	-10.756
▁socket.io를	-10.756
▁socket;	-10.756
▁speed;	-10.756
▁spyLogDelegator	-10.756
▁start)	-10.756
▁startup	-10.756
▁static_cast<double>(end	-10.756
▁static으로	-10.756
▁str2;	-10.756
▁student.setHakbun(sc.next());	-10.756
▁style=""position:	-10.756
▁style='font-size:20px;'>""	-10.756
▁submit	-10.756
▁such	-10.756
▁t)	-10.756
▁t,	-10.756
▁tag	-10.756
▁temp2;	-10.756
▁temp3	-10.756
▁testcase	-10.756
▁text-align:	-10.756
▁text-align:center;	-10.756
▁text][1]	-10.756
▁text를	-10.756
▁this.data	-10.756
▁this.headerText	-10.756
▁this.style.fill	-10.756
▁three	-10.756
▁time.time()	-10.756
▁toggle	-10.756
▁top:	-10.756
▁transaction	-10.756
▁type=""hidden""	-10.756
▁type='button'	-10.756
▁unsigned_boo)	-10.756
▁urlConnection	-10.756
▁urllib	-10.756
▁url로	-10.756
▁user_id	-10.756
▁val	-10.756
▁val)	-10.756
▁values(null,	-10.756
▁values;	-10.756
▁value가	-10.756
▁velocity);	-10.756
▁view)	-10.756
▁views.$$$	-10.756
▁vs	-10.756
▁which	-10.756
▁while(1)	-10.756
▁while(true){	-10.756
▁why	-10.756
▁x);	-10.756
▁x64	-10.756
▁xmlns:xsi=""http://www.w3.org/2001/XMLSchema-instance""	-10.756
▁x의	-10.756
▁{'Entity':	-10.756
▁~\Anaconda3\lib\urllib\request.py	-10.756
▁ᅮᅮᅮ	-10.756
▁ᅲᅲ",1	-10.756
▁ᅲᅲ..	-10.756
▁가는	-10.756
▁가능할까요?	-10.756
▁가능합니다.	-10.756
▁가르쳐주시면	-10.756
▁가서	-10.756
▁가지게	-10.756
▁각자	-10.756
▁감도	-10.756
▁같네요	-10.756
▁갯수	-10.756
▁갯수가	-10.756
▁갱신	-10.756
▁거리를	-10.756
▁검색하여	-10.756
▁검색할	-10.756
▁겁니다.	-10.756
▁결과:	-10.756
▁경우만	-10.756
▁계산기	-10.756
▁계시면	-10.756
▁계정	-10.756
▁고민입니다.	-10.756
▁공부중	-10.756
▁공부하기	-10.756
▁공부하는	-10.756
▁관계	-10.756
▁관해서	-10.756
▁구글링	-10.756
▁구글에서	-10.756
▁구분	-10.756
▁구분을	-10.756
▁구현된	-10.756
▁구현시	-10.756
▁구현해보고	-10.756
▁궁금증이	-10.756
▁궁금한점이	-10.756
▁그래도	-10.756
▁그래프	-10.756
▁그런건가요?	-10.756
▁그림을	-10.756
▁금액	-10.756
▁기능에	-10.756
▁기초적인	-10.756
▁길이가	-10.756
▁까요?	-10.756
▁나네요	-10.756
▁나오도록	-10.756
▁나올	-10.756
▁나와	-10.756
▁나지	-10.756
▁나타납니다.	-10.756
▁날짜가	-10.756
▁남은	-10.756
▁납니다	-10.756
▁넘어가고	-10.756
▁넣는다	-10.756
▁넣었는데	-10.756
▁누르고	-10.756
▁뉴스	-10.756
▁단일	-10.756
▁대문자	-10.756
▁대신에	-10.756
▁데이터만	-10.756
▁데이터에	-10.756
▁도메인	-10.756
▁도와주세요...	-10.756
▁돌아가는지	-10.756
▁동안	-10.756
▁동의</label>	-10.756
▁됐습니다.	-10.756
▁되는게	-10.756
▁되는데요.	-10.756
▁되어야	-10.756
▁된다.	-10.756
▁두개	-10.756
▁뒤,	-10.756
▁드립니다	-10.756
▁들었습니다.	-10.756
▁들을	-10.756
▁등이	-10.756
▁디비	-10.756
▁딱히	-10.756
▁때만	-10.756
▁때에	-10.756
▁떠요	-10.756
▁뜨지	-10.756
▁띄어쓰기가	-10.756
▁라이브러리는	-10.756
▁루프	-10.756
▁리스트형식으로	-10.756
▁링크의	-10.756
▁마음에	-10.756
▁막상	-10.756
▁만드는데	-10.756
▁만들고싶은데	-10.756
▁만한	-10.756
▁말입니다.	-10.756
▁맞다면	-10.756
▁메모리상에	-10.756
▁메서드를	-10.756
▁메소드에	-10.756
▁몇번째	-10.756
▁모드로	-10.756
▁모르겠네요..	-10.756
▁목록이	-10.756
▁못하나요?	-10.756
▁문구가	-10.756
▁문에서	-10.756
▁문의	-10.756
▁문자로	-10.756
▁문제에	-10.756
▁문제일까요?	-10.756
▁뭐죠?	-10.756
▁뭔가요	-10.756
▁바꿔서	-10.756
▁바뀌지	-10.756
▁반복되는	-10.756
▁반복문에서	-10.756
▁반복적으로	-10.756
▁받는데	-10.756
▁받아오지	-10.756
▁받았습니다.	-10.756
▁방법,"$$$	-10.756
▁방법밖에	-10.756
▁방법이나	-10.756
▁방식은	-10.756
▁배열안에	-10.756
▁배우기	-10.756
▁배운	-10.756
▁배치	-10.756
▁벡터	-10.756
▁변경이	-10.756
▁변화가	-10.756
▁변환하여	-10.756
▁별	-10.756
▁보내면	-10.756
▁보는	-10.756
▁보다	-10.756
▁보시다시피	-10.756
▁보이고	-10.756
▁복사가	-10.756
▁본문	-10.756
▁봤는데요.	-10.756
▁부디	-10.756
▁부탁드립니다.",4	-10.756
▁분리해서	-10.756
▁불러오기	-10.756
▁불러오려고	-10.756
▁뷰	-10.756
▁비교를	-10.756
▁비밀번호를	-10.756
▁빠른	-10.756
▁뽑아내는	-10.756
▁사각형의	-10.756
▁사람들의	-10.756
▁사용하려면	-10.756
▁사용할때	-10.756
▁사이트의	-10.756
▁사진	-10.756
▁사진에	-10.756
▁사진에서	-10.756
▁상황에서	-10.756
▁상황을	-10.756
▁새로고침	-10.756
▁생각하는데	-10.756
▁생각합니다.	-10.756
▁생각해도	-10.756
▁생각해봤는데	-10.756
▁생성시	-10.756
▁생성자의	-10.756
▁생성할때	-10.756
▁생성해서	-10.756
▁서블릿	-10.756
▁선언하는	-10.756
▁설명해주실	-10.756
▁성능이	-10.756
▁세는	-10.756
▁세번째	-10.756
▁소멸자를	-10.756
▁수량	-10.756
▁수신	-10.756
▁수신받은	-10.756
▁수의	-10.756
▁순서로	-10.756
▁스크롤	-10.756
▁스택을	-10.756
▁시간과	-10.756
▁시도해봤는데	-10.756
▁시작한지	-10.756
▁시점	-10.756
▁실행되게	-10.756
▁실행된	-10.756
▁실행시키는	-10.756
▁실행중인	-10.756
▁싶습니다.,"```	-10.756
▁싶은데요	-10.756
▁써져있는	-10.756
▁씁니다.	-10.756
▁아니라서	-10.756
▁아니지만	-10.756
▁아닌,	-10.756
▁아닌가요??	-10.756
▁아스키	-10.756
▁아이콘	-10.756
▁아주	-10.756
▁아직도	-10.756
▁안되네요.	-10.756
▁안됨	-10.756
▁안됩니다	-10.756
▁안뜨게	-10.756
▁안에는	-10.756
▁안에있는	-10.756
▁않게	-10.756
▁않더군요.	-10.756
▁않았다고	-10.756
▁않을까	-10.756
▁알고있는데	-10.756
▁알고있습니다.	-10.756
▁알려	-10.756
▁알았습니다.	-10.756
▁애플리케이션을	-10.756
▁액세스	-10.756
▁어노테이션을	-10.756
▁없는건가요?	-10.756
▁없어요.	-10.756
▁없지만	-10.756
▁여러개를	-10.756
▁여전히	-10.756
▁영어로	-10.756
▁영화제목	-10.756
▁예전에	-10.756
▁오는	-10.756
▁오랜만에	-10.756
▁오른쪽	-10.756
▁올리는	-10.756
▁옵션을	-10.756
▁왜그런지	-10.756
▁우분투	-10.756
▁웹을	-10.756
▁웹크롤링	-10.756
▁윈속	-10.756
▁유효한	-10.756
▁응답이	-10.756
▁의문이	-10.756
▁의미인지	-10.756
▁의미하는	-10.756
▁이것저것	-10.756
▁이러면	-10.756
▁이미지는	-10.756
▁이벤트로	-10.756
▁이상의	-10.756
▁이처럼	-10.756
▁이해	-10.756
▁이후에	-10.756
▁인가요?	-10.756
▁인덱스가	-10.756
▁인덱스에	-10.756
▁인스타그램	-10.756
▁인식이	-10.756
▁인코딩	-10.756
▁인터프리터	-10.756
▁일부입니다.	-10.756
▁입력하세요:	-10.756
▁있구요.	-10.756
▁있나요	-10.756
▁있나요?",5	-10.756
▁있나요?,"	-10.756
▁있다면,	-10.756
▁있으시면	-10.756
▁있지만,	-10.756
▁자리를	-10.756
▁자신의	-10.756
▁자연수	-10.756
▁작성하면	-10.756
▁작성했는데	-10.756
▁작업이	-10.756
▁잘못되었는지	-10.756
▁잘못된건지	-10.756
▁재귀함수	-10.756
▁저번에	-10.756
▁저장되어있는	-10.756
▁저장되지	-10.756
▁저장하지	-10.756
▁적어도	-10.756
▁적용되어	-10.756
▁적이	-10.756
▁전달하는	-10.756
▁전체개수	-10.756
▁전체적으로	-10.756
▁접근해야	-10.756
▁정도의	-10.756
▁정수의	-10.756
▁정의가	-10.756
▁제목	-10.756
▁조건문	-10.756
▁조건문을	-10.756
▁조건식을	-10.756
▁주석	-10.756
▁주소값	-10.756
▁줄에서	-10.756
▁줄이	-10.756
▁줄일	-10.756
▁중요한	-10.756
▁지원을	-10.756
▁지점을	-10.756
▁지정하는	-10.756
▁지정하면	-10.756
▁질문드립니다.,"```	-10.756
▁질문드립니다.,"안녕하세요.	-10.756
▁질문입니다	-10.756
▁짜봤는데	-10.756
▁짜야	-10.756
▁차이점을	-10.756
▁참조하는	-10.756
▁찾아도	-10.756
▁처리하면	-10.756
▁체크를	-10.756
▁초보가	-10.756
▁총점:	-10.756
▁최근	-10.756
▁추가를	-10.756
▁추가합니다.	-10.756
▁추가해서	-10.756
▁캐릭터를	-10.756
▁컴파일러가	-10.756
▁컴파일을	-10.756
▁컴포넌트를	-10.756
▁코드만	-10.756
▁코드와	-10.756
▁코드인데요.	-10.756
▁코딩은	-10.756
▁코딩하고	-10.756
▁콘솔에서	-10.756
▁콘솔창에서	-10.756
▁큐가	-10.756
▁크롤	-10.756
▁크면	-10.756
▁클릭을	-10.756
▁클릭했을	-10.756
▁키워드는	-10.756
▁타입이	-10.756
▁터미널에서	-10.756
▁테이블의	-10.756
▁텍스트로	-10.756
▁토큰을	-10.756
▁통신을	-10.756
▁툴을	-10.756
▁특별한	-10.756
▁특수화	-10.756
▁파싱	-10.756
▁파싱을	-10.756
▁파일입출력	-10.756
▁포인터,	-10.756
▁폼	-10.756
▁표시가	-10.756
▁표시하고	-10.756
▁표준	-10.756
▁푸는	-10.756
▁프로그램에	-10.756
▁프로세스	-10.756
▁프로젝트에	-10.756
▁필요할	-10.756
▁하겠습니다.	-10.756
▁하고있습니다.	-10.756
▁하나에	-10.756
▁하는건지	-10.756
▁하려	-10.756
▁한줄	-10.756
▁한줄로	-10.756
▁할지를	-10.756
▁합치는	-10.756
▁해본	-10.756
▁해시코드	-10.756
▁해야하는데	-10.756
▁해제	-10.756
▁했더니	-10.756
▁했지만	-10.756
▁형	-10.756
▁형식이	-10.756
▁형태가	-10.756
▁호출할	-10.756
▁확인해보니	-10.756
▁확인해보면	-10.756
▁확인했습니다.	-10.756
▁확장자를	-10.756
▁활용해서	-10.756
▁횟수	-10.756
▁효과가	-10.756
▁![이미지][4]	-10.9383
▁"""")	-10.9383
▁""*"":	-10.9383
▁""+"":	-10.9383
▁""-"":	-10.9383
▁""/""	-10.9383
▁""/"")	-10.9383
▁""/"":	-10.9383
▁""2"",	-10.9383
▁""<div	-10.9383
▁""C""	-10.9383
▁""C:\Users\H77\AppData\Local\Programs\$$$\$$$36-32\lib\turtle.py"",	-10.9383
▁""The	-10.9383
▁""Wrong	-10.9383
▁""both"")	-10.9383
▁""post_id"":	-10.9383
▁""w"")	-10.9383
▁############"",	-10.9383
▁$$$)	-10.9383
▁$$$.io.*;	-10.9383
▁$$$.io.BufferedReader;	-10.9383
▁$$$.util.Arrays;	-10.9383
▁$(document).ready(function	-10.9383
▁%.2f""	-10.9383
▁%f"",	-10.9383
▁%s""	-10.9383
▁&c);	-10.9383
▁&num);	-10.9383
▁&x,	-10.9383
▁'#')	-10.9383
▁'''코드'''",1	-10.9383
▁'',	-10.9383
▁'+':	-10.9383
▁'-':	-10.9383
▁'/':	-10.9383
▁'1':	-10.9383
▁'2':	-10.9383
▁'3')	-10.9383
▁'3':	-10.9383
▁'5':	-10.9383
▁'A':	-10.9383
▁'SNagative':	-10.9383
▁'\n'	-10.9383
▁'_'	-10.9383
▁'a':	-10.9383
▁'ascii'	-10.9383
▁'const	-10.9383
▁'d':	-10.9383
▁'e',	-10.9383
▁'foo'	-10.9383
▁'int'	-10.9383
▁'utf-8'	-10.9383
▁'w',	-10.9383
▁'▲',	-10.9383
▁'로',	-10.9383
▁($$$	-10.9383
▁((leftt	-10.9383
▁((right	-10.9383
▁((y	-10.9383
▁(Button)	-10.9383
▁(Cursor)	-10.9383
▁(LinearLayout)	-10.9383
▁(NumberFormatException	-10.9383
▁(T)	-10.9383
▁(aa[i]	-10.9383
▁(key	-10.9383
▁(low	-10.9383
▁(queryInterface,	-10.9383
▁(retval	-10.9383
▁(strcmp(word,	-10.9383
▁*)&serveraddr,	-10.9383
▁*PeopleArray	-10.9383
▁*args,	-10.9383
▁*max_h,	-10.9383
▁,,	-10.9383
▁-1){	-10.9383
▁-1]],	-10.9383
▁-m	-10.9383
▁-v	-10.9383
▁...)	-10.9383
▁.ToLocalChecked(),	-10.9383
▁//125ns	-10.9383
▁//2.	-10.9383
▁//input	-10.9383
▁//pstmt.setInt(1,	-10.9383
▁//pstmt.setInt(2,	-10.9383
▁//숫자	-10.9383
▁/=	-10.9383
▁0.2	-10.9383
▁08:59:22	-10.9383
▁1.3862944	-10.9383
▁100000	-10.9383
▁102,	-10.9383
▁10번	-10.9383
▁12;	-10.9383
▁13	-10.9383
▁15]	-10.9383
▁1},	-10.9383
▁1보다	-10.9383
▁1씩	-10.9383
▁2))	-10.9383
▁200)	-10.9383
▁200;	-10.9383
▁256	-10.9383
▁2가	-10.9383
▁2개를	-10.9383
▁2의	-10.9383
▁32)	-10.9383
▁3번	-10.9383
▁3월	-10.9383
▁3의	-10.9383
▁45	-10.9383
▁49,	-10.9383
▁500);	-10.9383
▁500,	-10.9383
▁5120	-10.9383
▁5개를	-10.9383
▁64비트	-10.9383
▁65,	-10.9383
▁66,	-10.9383
▁700	-10.9383
▁7336	-10.9383
▁77,	-10.9383
▁7:	-10.9383
▁7;	-10.9383
▁8;	-10.9383
▁8]	-10.9383
▁900만원	-10.9383
▁9:	-10.9383
▁:"")	-10.9383
▁</LinearLayout>	-10.9383
▁</exclusion>	-10.9383
▁</thead>	-10.9383
▁<LinearLayout	-10.9383
▁<TextView	-10.9383
▁<conio.h>	-10.9383
▁<constructor-arg	-10.9383
▁<exclusion>	-10.9383
▁<form>	-10.9383
▁<nav	-10.9383
▁<section	-10.9383
▁<table>	-10.9383
▁<thead>	-10.9383
▁<time.h>	-10.9383
▁=+	-10.9383
▁?"";	-10.9383
▁A:	-10.9383
▁A<10	-10.9383
▁API가	-10.9383
▁Ajax	-10.9383
▁An	-10.9383
▁ArrayUtils(sizeOfArray);	-10.9383
▁A{	-10.9383
▁A를	-10.9383
▁A의	-10.9383
▁B<10	-10.9383
▁Ball	-10.9383
▁Bus	-10.9383
▁B에서	-10.9383
▁B의	-10.9383
▁C#에서는	-10.9383
▁CORS	-10.9383
▁CREATE	-10.9383
▁Canvas	-10.9383
▁Close	-10.9383
▁Container	-10.9383
▁DBAdapter(ListViewActivity.this,	-10.9383
▁DEFAULT	-10.9383
▁DLL	-10.9383
▁DListNode*	-10.9383
▁DataFrame	-10.9383
▁DataOutputStream	-10.9383
▁Dog	-10.9383
▁Double.parseDouble(token);	-10.9383
▁EOF	-10.9383
▁Element	-10.9383
▁EnableWindow(g_hButtonSendMsg,	-10.9383
▁Enemy[i].x	-10.9383
▁Enemy[i].y);	-10.9383
▁FILE*	-10.9383
▁Flask(__name__)	-10.9383
▁Frame	-10.9383
▁FullTime	-10.9383
▁H	-10.9383
▁HashMap<Integer,	-10.9383
▁Hello	-10.9383
▁IE	-10.9383
▁Instagram	-10.9383
▁Integer로	-10.9383
▁IplImage	-10.9383
▁JOIN	-10.9383
▁JScrollPane	-10.9383
▁JVM이	-10.9383
▁KST	-10.9383
▁L->head	-10.9383
▁LinearLayout	-10.9383
▁Log.d(""jyj"",	-10.9383
▁Logger	-10.9383
▁MAXSTAGE	-10.9383
▁MapPOIItem	-10.9383
▁Mat	-10.9383
▁MongoClient.connect(mongoUrl,	-10.9383
▁Mypath	-10.9383
▁NO	-10.9383
▁NULL로	-10.9383
▁Name	-10.9383
▁None,	-10.9383
▁N개의	-10.9383
▁N이	-10.9383
▁ORM:	-10.9383
▁Object[]	-10.9383
▁PHP	-10.9383
▁Panel();	-10.9383
▁Point&	-10.9383
▁Point&);	-10.9383
▁Print	-10.9383
▁PrintWriter	-10.9383
▁Queue	-10.9383
▁REST	-10.9383
▁Record	-10.9383
▁Register(models.Model):	-10.9383
▁RequestMethod.POST)	-10.9383
▁Response	-10.9383
▁Result();	-10.9383
▁SIZE_QUEUE;	-10.9383
▁Schema({	-10.9383
▁Score	-10.9383
▁Sequelize)	-10.9383
▁Sequelize.DATE	-10.9383
▁Sequelize.INTEGER,	-10.9383
▁Sequelize:	-10.9383
▁Show	-10.9383
▁SimpleFuncObj(obj);	-10.9383
▁Spring	-10.9383
▁String[5];	-10.9383
▁System.currentTimeMillis();	-10.9383
▁System.out.println(	-10.9383
▁System.out.println(""IOException	-10.9383
▁System.out.println(""User	-10.9383
▁TAG	-10.9383
▁TITLE	-10.9383
▁TRUE	-10.9383
▁Thread(new	-10.9383
▁Tk()	-10.9383
▁UI를	-10.9383
▁Video;	-10.9383
▁WARN	-10.9383
▁WebView	-10.9383
▁You	-10.9383
▁Your	-10.9383
▁[1,2,3]	-10.9383
▁[6]=	-10.9383
▁[[	-10.9383
▁[p-nio-80-exec-1]	-10.9383
▁_CRT_SECURE_NO_WARNINGS	-10.9383
▁__attribute__	-10.9383
▁_name,	-10.9383
▁`Stock	-10.9383
▁`int	-10.9383
▁`void	-10.9383
▁a,b	-10.9383
▁about	-10.9383
▁above	-10.9383
▁actionPerformed(java.awt.event.ActionEvent	-10.9383
▁activeSlide	-10.9383
▁activity;	-10.9383
▁age,	-10.9383
▁aircraft_x_change	-10.9383
▁aircraft_y_change	-10.9383
▁am	-10.9383
▁amount	-10.9383
▁android.content.Intent;	-10.9383
▁android.support.v7.app.AppCompatActivity;	-10.9383
▁android.widget.EditText;	-10.9383
▁area	-10.9383
▁arguments	-10.9383
▁array1	-10.9383
▁array2	-10.9383
▁array로	-10.9383
▁arrow	-10.9383
▁arstage[ny	-10.9383
▁assert.equal(null,	-10.9383
▁avg	-10.9383
▁a라는	-10.9383
▁a와	-10.9383
▁background-color	-10.9383
▁bar()	-10.9383
▁baseDMA&	-10.9383
▁bias	-10.9383
▁black;	-10.9383
▁blue;	-10.9383
▁bold;	-10.9383
▁border:	-10.9383
▁br.close();	-10.9383
▁bus	-10.9383
▁buytable.deleteRow(buytable.clickedRowIndex);	-10.9383
▁byte[128];	-10.9383
▁byte[4];	-10.9383
▁byte[size];	-10.9383
▁c:	-10.9383
▁c=	-10.9383
▁car	-10.9383
▁cause	-10.9383
▁choice;	-10.9383
▁choose	-10.9383
▁city	-10.9383
▁class=""collapse	-10.9383
▁class=""item""	-10.9383
▁class=""nav	-10.9383
▁class='btn	-10.9383
▁class로	-10.9383
▁clicks	-10.9383
▁clntAddr	-10.9383
▁col;	-10.9383
▁collections	-10.9383
▁column	-10.9383
▁configuration	-10.9383
▁conn)	-10.9383
▁console.log(e);	-10.9383
▁csv	-10.9383
▁cv2	-10.9383
▁d.bind(	-10.9383
▁data-toggle=""collapse""	-10.9383
▁dataType	-10.9383
▁databaseHelper.getAllData();	-10.9383
▁db를	-10.9383
▁db에서	-10.9383
▁defer=""""	-10.9383
▁definition	-10.9383
▁denied	-10.9383
▁dest	-10.9383
▁device	-10.9383
▁dialogInterface,	-10.9383
▁dic	-10.9383
▁dict	-10.9383
▁digit1	-10.9383
▁digit2	-10.9383
▁discountprice	-10.9383
▁discountreal	-10.9383
▁display.append(""\n	-10.9383
▁div를	-10.9383
▁doc	-10.9383
▁dtype=int16),	-10.9383
▁dx;	-10.9383
▁ejs로	-10.9383
▁enabled	-10.9383
▁enqueue	-10.9383
▁ex	-10.9383
▁example	-10.9383
▁execute	-10.9383
▁extern	-10.9383
▁e를	-10.9383
▁f;	-10.9383
▁fill	-10.9383
▁finished	-10.9383
▁flag	-10.9383
▁float);	-10.9383
▁font-weight:	-10.9383
▁for='exampleInputEmail1'	-10.9383
▁foreignKey:	-10.9383
▁forever	-10.9383
▁for문에	-10.9383
▁function(data)	-10.9383
▁function(data){	-10.9383
▁function(e){	-10.9383
▁g.fillOval(x,	-10.9383
▁getDataT2[i];	-10.9383
▁getDataT[i];	-10.9383
▁global->Set(	-10.9383
▁gp.output(7,	-10.9383
▁great	-10.9383
▁green	-10.9383
▁hash	-10.9383
▁height:500px;	-10.9383
▁height;	-10.9383
▁hello를	-10.9383
▁hierarchy	-10.9383
▁high	-10.9383
▁high)	-10.9383
▁hit	-10.9383
▁holder	-10.9383
▁holder;	-10.9383
▁hover	-10.9383
▁hp)	-10.9383
▁href=""#""	-10.9383
▁html로	-10.9383
▁http-equiv=""Content-Type""	-10.9383
▁i)->alpha	-10.9383
▁i--){	-10.9383
▁i<	-10.9383
▁i<3;	-10.9383
▁i<5;	-10.9383
▁i<6;	-10.9383
▁if문에	-10.9383
▁image,	-10.9383
▁index)	-10.9383
▁index,	-10.9383
▁index;	-10.9383
▁initialized	-10.9383
▁inline	-10.9383
▁input){	-10.9383
▁input.value가	-10.9383
▁int8	-10.9383
▁int[5];	-10.9383
▁int의	-10.9383
▁ios::out	-10.9383
▁is:	-10.9383
▁isConnect	-10.9383
▁is_connection_ok	-10.9383
▁jade	-10.9383
▁java.awt.*;	-10.9383
▁java.awt.event.ActionListener()	-10.9383
▁java.io.BufferedReader;	-10.9383
▁json형태로	-10.9383
▁k)	-10.9383
▁key;	-10.9383
▁l,	-10.9383
▁l;	-10.9383
▁label;	-10.9383
▁last)	-10.9383
▁last,	-10.9383
▁layout	-10.9383
▁layout.createSequentialGroup()	-10.9383
▁leaf	-10.9383
▁leaf;	-10.9383
▁left:	-10.9383
▁len(array)	-10.9383
▁len[j]	-10.9383
▁length;	-10.9383
▁level	-10.9383
▁linear	-10.9383
▁link;	-10.9383
▁linkedList_h	-10.9383
▁list1	-10.9383
▁list2	-10.9383
▁listNode	-10.9383
▁lists	-10.9383
▁localStorage에	-10.9383
▁look	-10.9383
▁m2	-10.9383
▁margin:	-10.9383
▁margin:0	-10.9383
▁method:	-10.9383
▁migrate	-10.9383
▁mine	-10.9383
▁minimum	-10.9383
▁model)	-10.9383
▁model:	-10.9383
▁model;	-10.9383
▁models.CharField(max_length	-10.9383
▁models.CharField(max_length=10)	-10.9383
▁mongoose	-10.9383
▁mouse	-10.9383
▁myName	-10.9383
▁name=""password""	-10.9383
▁name=""username""	-10.9383
▁navbar-collapse""	-10.9383
▁newNode	-10.9383
▁next();	-10.9383
▁next;	-10.9383
▁nginx	-10.9383
▁node@8.11.3	-10.9383
▁now	-10.9383
▁np.zeros(M)	-10.9383
▁num1,	-10.9383
▁num2;	-10.9383
▁numOfElements;	-10.9383
▁number)	-10.9383
▁n을	-10.9383
▁objects	-10.9383
▁one();	-10.9383
▁op	-10.9383
▁opened.""	-10.9383
▁operator*(const	-10.9383
▁p);	-10.9383
▁pageNum	-10.9383
▁parEnd	-10.9383
▁parent)	-10.9383
▁parsing	-10.9383
▁passport	-10.9383
▁peek()	-10.9383
▁per	-10.9383
▁person	-10.9383
▁pitch	-10.9383
▁please	-10.9383
▁polynomial	-10.9383
▁position:absolute;	-10.9383
▁postfix	-10.9383
▁pp	-10.9383
▁prefix=""c""	-10.9383
▁primary	-10.9383
▁primaryKey:	-10.9383
▁print(""%d	-10.9383
▁print(a)	-10.9383
▁print(b)	-10.9383
▁print(result)	-10.9383
▁print(x	-10.9383
▁printEvent	-10.9383
▁printf(""Please	-10.9383
▁printf(""file	-10.9383
▁probably	-10.9383
▁problem	-10.9383
▁proxy_set_header	-10.9383
▁pstmt.executeQuery();	-10.9383
▁pstmt.executeUpdate(sql);	-10.9383
▁pstmt.setString(1,	-10.9383
▁pstmt=con.prepareStatement(sql);	-10.9383
▁public을	-10.9383
▁rand_index	-10.9383
▁random.randint(2,12)	-10.9383
▁random.uniform(a,b)	-10.9383
▁range(n):	-10.9383
▁reader.readLine())	-10.9383
▁real	-10.9383
▁receive	-10.9383
▁red	-10.9383
▁references:	-10.9383
▁repetitivePath	-10.9383
▁requestCode,	-10.9383
▁requests.get(url)	-10.9383
▁require('express');	-10.9383
▁require('fs');	-10.9383
▁res){	-10.9383
▁res.render('read',	-10.9383
▁response,	-10.9383
▁return을	-10.9383
▁return하는	-10.9383
▁retval;	-10.9383
▁router	-10.9383
▁rs.close();	-10.9383
▁s3	-10.9383
▁scanf_s(""%f"",	-10.9383
▁scanner.close();	-10.9383
▁schedule[i].time2_m	-10.9383
▁scroll	-10.9383
▁seat6	-10.9383
▁secret	-10.9383
▁self.balance	-10.9383
▁self.data	-10.9383
▁sendBuffer[i]	-10.9383
▁sentence	-10.9383
▁service	-10.9383
▁setLayout(new	-10.9383
▁settings	-10.9383
▁shape	-10.9383
▁show()	-10.9383
▁size);	-10.9383
▁sock	-10.9383
▁some	-10.9383
▁someCode();	-10.9383
▁sp	-10.9383
▁src_width	-10.9383
▁stackNode*	-10.9383
▁start_h	-10.9383
▁start_m	-10.9383
▁start_pos	-10.9383
▁starting	-10.9383
▁stddev	-10.9383
▁stop	-10.9383
▁str(i)	-10.9383
▁str1	-10.9383
▁strcpy(str,	-10.9383
▁string으로	-10.9383
▁style='text-align:center;'>""+	-10.9383
▁sub	-10.9383
▁subprocess	-10.9383
▁super	-10.9383
▁super.onPostExecute(s);	-10.9383
▁super.onResume();	-10.9383
▁temp->next;	-10.9383
▁temp1->next;	-10.9383
▁temp의	-10.9383
▁test1	-10.9383
▁text:	-10.9383
▁theStream);	-10.9383
▁this,	-10.9383
▁this->size	-10.9383
▁this.objTop[i]	-10.9383
▁time,	-10.9383
▁time;	-10.9383
▁timer	-10.9383
▁title;	-10.9383
▁tk	-10.9383
▁tmp_m);	-10.9383
▁tries	-10.9383
▁type(a)	-10.9383
▁type=""file""	-10.9383
▁type=""text/$$$""	-10.9383
▁type=""text/css"">	-10.9383
▁type=""text/javascript"">	-10.9383
▁u	-10.9383
▁unique:	-10.9383
▁up	-10.9383
▁url.openConnection();	-10.9383
▁user=models.OneToOneField(User,on_delete=models.CASCADE)	-10.9383
▁username	-10.9383
▁v){	-10.9383
▁v8::String::NewFromUtf8(isolate,	-10.9383
▁value=""debug""	-10.9383
▁vertical-align:	-10.9383
▁victim_ip	-10.9383
▁volatile	-10.9383
▁warning	-10.9383
▁where;	-10.9383
▁while문의	-10.9383
▁while문이	-10.9383
▁win32	-10.9383
▁words	-10.9383
▁x:	-10.9383
▁xProtect	-10.9383
▁xhr	-10.9383
▁xrand[i]	-10.9383
▁x가	-10.9383
▁y);	-10.9383
▁y++)	-10.9383
▁y:	-10.9383
▁{0:	-10.9383
▁{text:	-10.9383
▁{{	-10.9383
▁}"")	-10.9383
▁}*/	-10.9383
▁}`	-10.9383
▁}catch	-10.9383
▁}catch(Exception	-10.9383
▁~~~	-10.9383
▁ᅮᅮ",3	-10.9383
▁ᅲᅲ,"```	-10.9383
▁가까운	-10.9383
▁가끔	-10.9383
▁가는데	-10.9383
▁가능하게	-10.9383
▁가능한데	-10.9383
▁가르쳐주세요.	-10.9383
▁가져다	-10.9383
▁가져오려고	-10.9383
▁가져오지	-10.9383
▁가져와야	-10.9383
▁가질	-10.9383
▁각기	-10.9383
▁간	-10.9383
▁감사하겠습니다!",3	-10.9383
▁값도	-10.9383
▁강의	-10.9383
▁같더라구요.	-10.9383
▁같아요	-10.9383
▁같은데..	-10.9383
▁개행문자	-10.9383
▁갯수를	-10.9383
▁갯수와	-10.9383
▁거는	-10.9383
▁거라고	-10.9383
▁거랑	-10.9383
▁걸립니다.	-10.9383
▁검사	-10.9383
▁검사를	-10.9383
▁검색된	-10.9383
▁검색이	-10.9383
▁것만	-10.9383
▁것의	-10.9383
▁게임은	-10.9383
▁결과값은=',res_list)	-10.9383
▁결과적으로	-10.9383
▁경로가	-10.9383
▁경로로	-10.9383
▁경로에	-10.9383
▁경험이	-10.9383
▁계산을	-10.9383
▁계시다면	-10.9383
▁공백만	-10.9383
▁공부하다가	-10.9383
▁공부할	-10.9383
▁과정이	-10.9383
▁과제로	-10.9383
▁구글링해도	-10.9383
▁구글링해봐도	-10.9383
▁구조가	-10.9383
▁구조로	-10.9383
▁구하려고	-10.9383
▁구할	-10.9383
▁구현하고자	-10.9383
▁구현해야	-10.9383
▁구현해야할지	-10.9383
▁구현했습니다.	-10.9383
▁그것도	-10.9383
▁그다음	-10.9383
▁그렇다고	-10.9383
▁그렇지	-10.9383
▁그리는	-10.9383
▁그만큼	-10.9383
▁그에	-10.9383
▁글쓰기	-10.9383
▁기억이	-10.9383
▁길이는	-10.9383
▁깔끔하게	-10.9383
▁끝이	-10.9383
▁나름	-10.9383
▁나머지는	-10.9383
▁나오는데,	-10.9383
▁나오는데요.	-10.9383
▁나오면	-10.9383
▁나옵니다..	-10.9383
▁나와있는	-10.9383
▁나은	-10.9383
▁나이:	-10.9383
▁나타나게	-10.9383
▁나타나는	-10.9383
▁납니다..	-10.9383
▁낮은	-10.9383
▁내부적으로	-10.9383
▁내용만	-10.9383
▁낼	-10.9383
▁너비우선탐색	-10.9383
▁넘겨	-10.9383
▁넘겨주는	-10.9383
▁넘기고	-10.9383
▁넘어가게	-10.9383
▁넘어가서	-10.9383
▁넣고싶은데	-10.9383
▁넣습니다.	-10.9383
▁넣어야	-10.9383
▁넣어주고	-10.9383
▁넣지	-10.9383
▁네트워크	-10.9383
▁노란공이	-10.9383
▁눌러	-10.9383
▁눌러서	-10.9383
▁다른지	-10.9383
▁다양한	-10.9383
▁다음에는	-10.9383
▁다차원	-10.9383
▁단어들을	-10.9383
▁닫기	-10.9383
▁달리	-10.9383
▁답	-10.9383
▁답변이	-10.9383
▁대로	-10.9383
▁대소문자	-10.9383
▁더이상	-10.9383
▁더해서	-10.9383
▁데	-10.9383
▁도와주세요!!	-10.9383
▁도움주시면	-10.9383
▁돌리고	-10.9383
▁돌아가게	-10.9383
▁돌아가고	-10.9383
▁동일	-10.9383
▁동작은	-10.9383
▁동작하는	-10.9383
▁동적할당	-10.9383
▁되긴	-10.9383
▁되나요	-10.9383
▁되네요	-10.9383
▁되는건가요	-10.9383
▁되는건지	-10.9383
▁되는것	-10.9383
▁되면서	-10.9383
▁되어있고	-10.9383
▁되었는데	-10.9383
▁되지를	-10.9383
▁될만한	-10.9383
▁두개를	-10.9383
▁두번쨰	-10.9383
▁들면,	-10.9383
▁들어있습니다.	-10.9383
▁들었는데	-10.9383
▁들자면	-10.9383
▁딕셔너리에	-10.9383
▁따로따로	-10.9383
▁땐	-10.9383
▁뜹니다..	-10.9383
▁로그가	-10.9383
▁로컬에	-10.9383
▁루프가	-10.9383
▁루프에	-10.9383
▁리사이클러뷰	-10.9383
▁리소스	-10.9383
▁리턴하는	-10.9383
▁마커	-10.9383
▁마커를	-10.9383
▁만들고,	-10.9383
▁만듭니다.	-10.9383
▁많고	-10.9383
▁많아서	-10.9383
▁말	-10.9383
▁매	-10.9383
▁먹히지	-10.9383
▁메모장에	-10.9383
▁메서드가	-10.9383
▁메소드와	-10.9383
▁멤버변수를	-10.9383
▁명시적으로	-10.9383
▁몇가지	-10.9383
▁모듈이	-10.9383
▁모르겠고	-10.9383
▁모르겠습니다.",3	-10.9383
▁모르겠어요..	-10.9383
▁모르겠지만	-10.9383
▁목록	-10.9383
▁못한	-10.9383
▁못합니다.	-10.9383
▁문서가	-10.9383
▁문의드립니다.	-10.9383
▁문장	-10.9383
▁문장에서	-10.9383
▁문장은	-10.9383
▁문제,"	-10.9383
▁문제,"```	-10.9383
▁문제,"안녕하세요.	-10.9383
▁뭐고	-10.9383
▁바꾸고싶은데	-10.9383
▁바꾸려고	-10.9383
▁바뀌면	-10.9383
▁박스	-10.9383
▁반복문이	-10.9383
▁반복하는	-10.9383
▁반응형	-10.9383
▁받고자	-10.9383
▁받습니다.	-10.9383
▁받아올	-10.9383
▁받아와	-10.9383
▁받을때	-10.9383
▁방법,"$$$에서	-10.9383
▁방법,"```	-10.9383
▁방향으로	-10.9383
▁배워서	-10.9383
▁배웠는데	-10.9383
▁버전이	-10.9383
▁버튼에	-10.9383
▁버튼은	-10.9383
▁버튼의	-10.9383
▁번에	-10.9383
▁변경하고	-10.9383
▁변경하면	-10.9383
▁변경한	-10.9383
▁변환을	-10.9383
▁변환이	-10.9383
▁변환한	-10.9383
▁보내서	-10.9383
▁보낼때	-10.9383
▁보안	-10.9383
▁보이는데	-10.9383
▁복호화	-10.9383
▁복호화된	-10.9383
▁봐주시면	-10.9383
▁봤지만	-10.9383
▁부탁드려요	-10.9383
▁부탁드리겠습니다.	-10.9383
▁분들이	-10.9383
▁붙는	-10.9383
▁붙여서	-10.9383
▁블로그	-10.9383
▁비교하고	-10.9383
▁비활성화	-10.9383
▁빨간	-10.9383
▁빨간줄이	-10.9383
▁빨리	-10.9383
▁빼고	-10.9383
▁뽑는	-10.9383
▁사람	-10.9383
▁사용중인	-10.9383
▁사용중인데	-10.9383
▁사용하는지	-10.9383
▁사이트에	-10.9383
▁사전	-10.9383
▁사진이	-10.9383
▁상관없이	-10.9383
▁상속받은	-10.9383
▁상위클래스의	-10.9383
▁상품번호를	-10.9383
▁상황은	-10.9383
▁생각해보니	-10.9383
▁생각해서	-10.9383
▁생성자에	-10.9383
▁생성자와	-10.9383
▁생성하기	-10.9383
▁생성하면	-10.9383
▁생성하여	-10.9383
▁서로다른	-10.9383
▁선	-10.9383
▁선언되는	-10.9383
▁선언되지	-10.9383
▁선언시	-10.9383
▁선언을	-10.9383
▁선택을	-10.9383
▁선택하게	-10.9383
▁설정이	-10.9383
▁설정한	-10.9383
▁설치한	-10.9383
▁성공	-10.9383
▁세로로	-10.9383
▁소스코드)	-10.9383
▁속	-10.9383
▁손을	-10.9383
▁수에	-10.9383
▁수정해서	-10.9383
▁수정했습니다.	-10.9383
▁수행	-10.9383
▁수행하는	-10.9383
▁순서는	-10.9383
▁스캐너	-10.9383
▁스케줄	-10.9383
▁스크롤이	-10.9383
▁스타일을	-10.9383
▁스트링으로	-10.9383
▁스트링을	-10.9383
▁시도해	-10.9383
▁시스템	-10.9383
▁시작할	-10.9383
▁식의	-10.9383
▁실시간으로	-10.9383
▁실행되는데	-10.9383
▁실행되면	-10.9383
▁실행됩니다.	-10.9383
▁실행시켜서	-10.9383
▁실행은	-10.9383
▁실행파일로	-10.9383
▁싶습니다,"	-10.9383
▁싶었습니다.	-10.9383
▁싶은데...	-10.9383
▁싶을때	-10.9383
▁썼는데	-10.9383
▁썼었는데	-10.9383
▁쓰거나	-10.9383
▁쓰게	-10.9383
▁쓰던데	-10.9383
▁쓰려면	-10.9383
▁쓰이는	-10.9383
▁쓴	-10.9383
▁아	-10.9383
▁아니라면	-10.9383
▁아닌가	-10.9383
▁아닌가요	-10.9383
▁아님	-10.9383
▁아래와같이	-10.9383
▁아이디를	-10.9383
▁아이디와	-10.9383
▁아이템을	-10.9383
▁안나는데	-10.9383
▁안나와서	-10.9383
▁안녕하세요!	-10.9383
▁안되네요...	-10.9383
▁안되어	-10.9383
▁안되요	-10.9383
▁안된다고	-10.9383
▁안하고	-10.9383
▁않는다고	-10.9383
▁않는데	-10.9383
▁않다고	-10.9383
▁않습니다.,"```	-10.9383
▁않은데	-10.9383
▁않음	-10.9383
▁않지만	-10.9383
▁알고리즘에	-10.9383
▁알기로는	-10.9383
▁알아서	-10.9383
▁암호화	-10.9383
▁액션	-10.9383
▁앱에	-10.9383
▁약	-10.9383
▁얕은	-10.9383
▁어디를	-10.9383
▁어떡해	-10.9383
▁어떻게해야할지	-10.9383
▁어려워	-10.9383
▁어렵네요	-10.9383
▁어렵네요.	-10.9383
▁어쩔때는	-10.9383
▁어찌	-10.9383
▁어플리케이션	-10.9383
▁어플리케이션에	-10.9383
▁없고,	-10.9383
▁없다면	-10.9383
▁없애는	-10.9383
▁없을까요?",3	-10.9383
▁없을까요?",4	-10.9383
▁엑셀	-10.9383
▁엘리먼트를	-10.9383
▁여기서는	-10.9383
▁여부	-10.9383
▁여부를	-10.9383
▁역시나	-10.9383
▁연결하여	-10.9383
▁열을	-10.9383
▁영역	-10.9383
▁영역에	-10.9383
▁옆에	-10.9383
▁예	-10.9383
▁예를들어,	-10.9383
▁오지	-10.9383
▁오픈소스	-10.9383
▁온라인	-10.9383
▁올려봅니다.	-10.9383
▁올리게	-10.9383
▁옵션이	-10.9383
▁와서	-10.9383
▁완료	-10.9383
▁왕초보	-10.9383
▁왜죠?	-10.9383
▁왼쪽에	-10.9383
▁왼쪽으로	-10.9383
▁요소의	-10.9383
▁용산구	-10.9383
▁원본	-10.9383
▁원소는	-10.9383
▁원하는대로	-10.9383
▁웹서비스를	-10.9383
▁웹페이지에서	-10.9383
▁위가	-10.9383
▁위에가	-10.9383
▁위와같이	-10.9383
▁위하여	-10.9383
▁유효성	-10.9383
▁이걸로	-10.9383
▁이곳에	-10.9383
▁이런식으로요	-10.9383
▁이름의	-10.9383
▁이리저리	-10.9383
▁이므로	-10.9383
▁이번에도	-10.9383
▁이상이	-10.9383
▁이중	-10.9383
▁이클립스로	-10.9383
▁이하로	-10.9383
▁이하의	-10.9383
▁인	-10.9383
▁인덱스로	-10.9383
▁인한	-10.9383
▁임시객체를	-10.9383
▁입력받으면	-10.9383
▁입력하세요"");	-10.9383
▁입력하세요.	-10.9383
▁입력해주세요"");	-10.9383
▁입력했을	-10.9383
▁있거나	-10.9383
▁있네요	-10.9383
▁있는건지	-10.9383
▁있는것	-10.9383
▁있던	-10.9383
▁있어요	-10.9383
▁있을까요?",1	-10.9383
▁있을까요?",4	-10.9383
▁자바	-10.9383
▁자체에	-10.9383
▁작거나	-10.9383
▁작동합니다.	-10.9383
▁작성하세요.	-10.9383
▁작성하였습니다.	-10.9383
▁잘모르겠습니다.	-10.9383
▁잡고	-10.9383
▁장점이	-10.9383
▁저에게	-10.9383
▁저장되는	-10.9383
▁저장하고,	-10.9383
▁저장후	-10.9383
▁적용한	-10.9383
▁적은	-10.9383
▁전까지	-10.9383
▁전달이	-10.9383
▁전역변수로	-10.9383
▁점은	-10.9383
▁점을	-10.9383
▁접근하면	-10.9383
▁접속자	-10.9383
▁정규식	-10.9383
▁정규표현식	-10.9383
▁정규표현식을	-10.9383
▁정렬하고	-10.9383
▁정의하고	-10.9383
▁제공	-10.9383
▁제목과	-10.9383
▁제외하고	-10.9383
▁좋을것	-10.9383
▁좋을까요	-10.9383
▁죄송합니다	-10.9383
▁주지	-10.9383
▁줄로	-10.9383
▁줄을	-10.9383
▁중복이	-10.9383
▁중첩	-10.9383
▁증가	-10.9383
▁증가)을	-10.9383
▁지정하고	-10.9383
▁진행하고	-10.9383
▁질문드려요	-10.9383
▁질문드립니다,"```	-10.9383
▁질문드립니다.",3	-10.9383
▁질문에	-10.9383
▁질문입니다,"```	-10.9383
▁질문하게	-10.9383
▁집어	-10.9383
▁짤	-10.9383
▁짧게	-10.9383
▁짧은	-10.9383
▁참조할	-10.9383
▁창에서	-10.9383
▁창이	-10.9383
▁찾아본	-10.9383
▁찾으면	-10.9383
▁찾은	-10.9383
▁첨부한	-10.9383
▁체크박스를	-10.9383
▁체크해서	-10.9383
▁초기화가	-10.9383
▁초기화할	-10.9383
▁초보자입니다.	-10.9383
▁최솟값과	-10.9383
▁최솟값을	-10.9383
▁최신	-10.9383
▁최초	-10.9383
▁추가하기	-10.9383
▁추가하여	-10.9383
▁추가하지	-10.9383
▁추가했습니다.	-10.9383
▁추출하고	-10.9383
▁출력결과가	-10.9383
▁출력되는지	-10.9383
▁출력된	-10.9383
▁출력될	-10.9383
▁출력시	-10.9383
▁출력은	-10.9383
▁출력하도록	-10.9383
▁출력합니다.	-10.9383
▁캐릭터	-10.9383
▁커스텀	-10.9383
▁컴파일러를	-10.9383
▁컴퓨터에서	-10.9383
▁케이스	-10.9383
▁코드대로	-10.9383
▁콜백	-10.9383
▁크롬에서	-10.9383
▁키	-10.9383
▁키가	-10.9383
▁키나	-10.9383
▁타입에	-10.9383
▁탭	-10.9383
▁테이블에서	-10.9383
▁템플릿에	-10.9383
▁템플릿에서	-10.9383
▁특수문자	-10.9383
▁파라미터	-10.9383
▁파일들이	-10.9383
▁패스워드	-10.9383
▁패킷을	-10.9383
▁페이지는	-10.9383
▁평균값을	-10.9383
▁평균을	-10.9383
▁포맷	-10.9383
▁포인터는	-10.9383
▁포인터의	-10.9383
▁포함하는	-10.9383
▁폴더가	-10.9383
▁폼을	-10.9383
▁표현할	-10.9383
▁프로그램입니다.	-10.9383
▁프로젝트로	-10.9383
▁프로토콜	-10.9383
▁프리징이	-10.9383
▁필요	-10.9383
▁하거나	-10.9383
▁하나요?",3	-10.9383
▁하나요?",5	-10.9383
▁하는건가요?	-10.9383
▁하는데..	-10.9383
▁하던	-10.9383
▁하려고하는데	-10.9383
▁하루에	-10.9383
▁하면,	-10.9383
▁학교에서	-10.9383
▁학번	-10.9383
▁학번:	-10.9383
▁학생입니다	-10.9383
▁학습	-10.9383
▁학습을	-10.9383
▁한가지	-10.9383
▁한다는	-10.9383
▁한다면	-10.9383
▁한데	-10.9383
▁할까요??	-10.9383
▁할당하는	-10.9383
▁할당한	-10.9383
▁함수,	-10.9383
▁함수포인터를	-10.9383
▁합	-10.9383
▁합니다.)	-10.9383
▁합치고	-10.9383
▁항목	-10.9383
▁항목에	-10.9383
▁해결방법	-10.9383
▁해결책이	-10.9383
▁해결하고	-10.9383
▁해결하는	-10.9383
▁해결하지	-10.9383
▁해석하면	-10.9383
▁해시태그	-10.9383
▁해야하나요?",3	-10.9383
▁핸들링	-10.9383
▁했는데요.	-10.9383
▁행렬의	-10.9383
▁형변환	-10.9383
▁형식에	-10.9383
▁호출시	-10.9383
▁호출하여	-10.9383
▁화면에서	-10.9383
▁확인하려고	-10.9383
▁확인해	-10.9383
▁활성화	-10.9383
▁회원가입	-10.9383
▁후위	-10.9383
▁힘드네요.	-10.9383
▁!important;}	-11.1614
▁""""""	-11.1614
▁""#	-11.1614
▁""###	-11.1614
▁""######	-11.1614
▁""##....	-11.1614
▁""%"");	-11.1614
▁""%s"",	-11.1614
▁""%s\n"",	-11.1614
▁""*""	-11.1614
▁""*"");	-11.1614
▁""+""	-11.1614
▁""+(i+1));	-11.1614
▁""+sid+""	-11.1614
▁""-//W3C//DTD	-11.1614
▁""1	-11.1614
▁""<table	-11.1614
▁""="",	-11.1614
▁""C:\Anaconda3\lib\site-packages\pandas\core\indexing.py"",	-11.1614
▁""C:\Users\lajet\Anaconda3\envs\BP3\lib\site-packages\pandas\io\sql.py"",	-11.1614
▁""Called	-11.1614
▁""JP"",	-11.1614
▁""Jerry""	-11.1614
▁""POP"":	-11.1614
▁""POST"":	-11.1614
▁""PTY"":	-11.1614
▁""Poping	-11.1614
▁""R06"":	-11.1614
▁""SKY"":	-11.1614
▁""T3H"":	-11.1614
▁""UTF-8"");	-11.1614
▁""Write	-11.1614
▁""YEAR"",	-11.1614
▁""\n""	-11.1614
▁""a"",	-11.1614
▁""button""	-11.1614
▁""country""	-11.1614
▁""createdAt""	-11.1614
▁""date""	-11.1614
▁""department""	-11.1614
▁""email"":	-11.1614
▁""file""	-11.1614
▁""http://www.w3.org/TR/html4/loose.dtd"">	-11.1614
▁""i	-11.1614
▁""indate"":""2016/10/12"",	-11.1614
▁""indate"":""2016/10/13"",	-11.1614
▁""itemTag"":[{	-11.1614
▁""json"",	-11.1614
▁""likeCount""	-11.1614
▁""main"":3,	-11.1614
▁""main"":4,	-11.1614
▁""sub"":4,	-11.1614
▁""sub"":7,	-11.1614
▁""success"");	-11.1614
▁""timeLike""	-11.1614
▁""title""	-11.1614
▁""top"",	-11.1614
▁""userId"":""aaabbb"",	-11.1614
▁""username""	-11.1614
▁""with	-11.1614
▁""work""	-11.1614
▁""개인코드""	-11.1614
▁""다른	-11.1614
▁""두문자열은	-11.1614
▁""부서""	-11.1614
▁""생성자	-11.1614
▁""워크""	-11.1614
▁""이름:	-11.1614
▁"[$$$]	-11.1614
▁#!/usr/bin/$$$	-11.1614
▁###"",	-11.1614
▁###########"",	-11.1614
▁################################	-11.1614
▁###소스	-11.1614
▁#2	-11.1614
▁#542437;	-11.1614
▁#84D3BD;	-11.1614
▁#fff;	-11.1614
▁#id/PW/Email	-11.1614
▁#ifdef	-11.1614
▁#회사명	-11.1614
▁#회원가입폼	-11.1614
▁$$$.io.IOException;	-11.1614
▁$$$.lang.ArrayIndexOutOfBoundsException:	-11.1614
▁$$$.util.Random;	-11.1614
▁$$$:	-11.1614
▁$$$도	-11.1614
▁$$$스러운	-11.1614
▁$$$코드를	-11.1614
▁$("".content	-11.1614
▁$(document).ready(function()	-11.1614
▁$(document).ready(function(){	-11.1614
▁$previewImg	-11.1614
▁%H:%i:%s')	-11.1614
▁%c),	-11.1614
▁%d입니다.	-11.1614
▁%p\n"",	-11.1614
▁%timeit	-11.1614
▁&(stu	-11.1614
▁''))	-11.1614
▁','	-11.1614
▁'0',	-11.1614
▁'11',	-11.1614
▁'2',	-11.1614
▁'22',	-11.1614
▁'4':	-11.1614
▁'6':	-11.1614
▁'A'	-11.1614
▁'B':	-11.1614
▁'C',	-11.1614
▁'Cc',	-11.1614
▁'D':	-11.1614
▁'Negative':	-11.1614
▁'Nowhere')	-11.1614
▁'POST':	-11.1614
▁'\n')){	-11.1614
▁'\t')	-11.1614
▁'\tthey	-11.1614
▁'a';	-11.1614
▁'b':	-11.1614
▁'black'),	-11.1614
▁'blue';	-11.1614
▁'d'	-11.1614
▁'dataSource';	-11.1614
▁'fin'	-11.1614
▁'form-control'}	-11.1614
▁'l',	-11.1614
▁'list'	-11.1614
▁'n'	-11.1614
▁'print'	-11.1614
▁'public_holiday')	-11.1614
▁'r',	-11.1614
▁'s'	-11.1614
▁'this'	-11.1614
▁(""-"").equals(temp))	-11.1614
▁(""/"").equals(temp))	-11.1614
▁($$$)	-11.1614
▁((""("").equals(temp))	-11.1614
▁(("")"").equals(temp))	-11.1614
▁((""*"").equals(temp)	-11.1614
▁((""+"").equals(temp)	-11.1614
▁((""^"").equals(temp))	-11.1614
▁((HeaderContainer)	-11.1614
▁((instrument	-11.1614
▁((signal,__INTR_ATTRS))	-11.1614
▁(*it)->getName();	-11.1614
▁(*p	-11.1614
▁(5,	-11.1614
▁(FileNotFoundException	-11.1614
▁(LayoutInflater)	-11.1614
▁(Math.random()	-11.1614
▁(SELECT	-11.1614
▁(a.nums[i]	-11.1614
▁(array[i][j]	-11.1614
▁(arstage[ny	-11.1614
▁(b	-11.1614
▁(category)	-11.1614
▁(char*)str1;	-11.1614
▁(choice2	-11.1614
▁(digit1	-11.1614
▁(hide[i][j]	-11.1614
▁(i*100	-11.1614
▁(i,	-11.1614
▁(inputValue	-11.1614
▁(int*)	-11.1614
▁(int*)malloc(sizeof(int)	-11.1614
▁(it	-11.1614
▁(k	-11.1614
▁(leaf->left	-11.1614
▁(mean	-11.1614
▁(nBetGold	-11.1614
▁(ns[ny	-11.1614
▁(requestCode	-11.1614
▁(result	-11.1614
▁(s	-11.1614
▁(state	-11.1614
▁(str[i]	-11.1614
▁(stringStack.top	-11.1614
▁(this.attributes.fill.value	-11.1614
▁(token)	-11.1614
▁(void*)	-11.1614
▁(제가	-11.1614
▁(현재	-11.1614
▁)**	-11.1614
▁*)	-11.1614
▁*)0;	-11.1614
▁**,	-11.1614
▁**head,	-11.1614
▁*AQ){	-11.1614
▁*a,	-11.1614
▁*argv[])	-11.1614
▁*b,	-11.1614
▁*c)	-11.1614
▁*c,	-11.1614
▁*c;	-11.1614
▁*file;	-11.1614
▁*fp;	-11.1614
▁*head,	-11.1614
▁*head;	-11.1614
▁*hptr	-11.1614
▁*max_h	-11.1614
▁*max_val	-11.1614
▁*min_val	-11.1614
▁*p--	-11.1614
▁*p1	-11.1614
▁*pre	-11.1614
▁*p가	-11.1614
▁*start_nap_h	-11.1614
▁*start_nap_h,	-11.1614
▁*start_nap_m	-11.1614
▁*temp;	-11.1614
▁++i)	-11.1614
▁+=1;	-11.1614
▁--	-11.1614
▁--node_napi_label=node-v57	-11.1614
▁-17	-11.1614
▁-2	-11.1614
▁-4	-11.1614
▁-59	-11.1614
▁......	-11.1614
▁........	-11.1614
▁.addGroup(layout.createParallelGroup(javax.swing.GroupLayout.Alignment.LEADING)	-11.1614
▁.addGroup(layout.createSequentialGroup()	-11.1614
▁/*|	-11.1614
▁//0	-11.1614
▁//1.	-11.1614
▁//Log.d(""jyj"",	-11.1614
▁//PM_int[i]	-11.1614
▁//address	-11.1614
▁//cycle_3(1);	-11.1614
▁//cycle_8(1);	-11.1614
▁//overloaded	-11.1614
▁//rs.get으로	-11.1614
▁//var	-11.1614
▁//}	-11.1614
▁//랜덤	-11.1614
▁//배열에	-11.1614
▁//여기서	-11.1614
▁//확인용	-11.1614
▁/></a>	-11.1614
▁0))	-11.1614
▁0));	-11.1614
▁0.1,	-11.1614
▁00:00:00""	-11.1614
▁00:44:16.328	-11.1614
▁00:44:16.350	-11.1614
▁00:44:16.352	-11.1614
▁08:40:55]	-11.1614
▁09:01:31.228	-11.1614
▁09:01:31.238	-11.1614
▁0px;	-11.1614
▁0},	-11.1614
▁0은	-11.1614
▁0이면	-11.1614
▁1):	-11.1614
▁10000	-11.1614
▁100000007;	-11.1614
▁10진수를	-11.1614
▁111,	-11.1614
▁123	-11.1614
▁131,	-11.1614
▁140	-11.1614
▁162:	-11.1614
▁16진수로	-11.1614
▁180	-11.1614
▁1]);	-11.1614
▁1][j]	-11.1614
▁1}	-11.1614
▁1번은	-11.1614
▁1인	-11.1614
▁1회	-11.1614
▁2,amd,50	-11.1614
▁2,john,24	-11.1614
▁2010	-11.1614
▁2016	-11.1614
▁2016];	-11.1614
▁21);	-11.1614
▁220,	-11.1614
▁23,	-11.1614
▁234	-11.1614
▁255,	-11.1614
▁27	-11.1614
▁2px	-11.1614
▁2번의	-11.1614
▁30)	-11.1614
▁32	-11.1614
▁35,	-11.1614
▁38,	-11.1614
▁3개가	-11.1614
▁3번째	-11.1614
▁4.01	-11.1614
▁4096);	-11.1614
▁4096;	-11.1614
▁42	-11.1614
▁42,	-11.1614
▁44	-11.1614
▁46,	-11.1614
▁48	-11.1614
▁4])	-11.1614
▁4가	-11.1614
▁4개가	-11.1614
▁4바이트	-11.1614
▁5));	-11.1614
▁5);	-11.1614
▁500;	-11.1614
▁51,	-11.1614
▁59	-11.1614
▁5}	-11.1614
▁5};	-11.1614
▁5개의	-11.1614
▁5의	-11.1614
▁6);	-11.1614
▁62,	-11.1614
▁64,	-11.1614
▁67	-11.1614
▁7)	-11.1614
▁72	-11.1614
▁77	-11.1614
▁8);	-11.1614
▁8이	-11.1614
▁:""	-11.1614
▁<!----><span	-11.1614
▁<!--[if	-11.1614
▁<-	-11.1614
▁</a>	-11.1614
▁</beans>	-11.1614
▁</insert>	-11.1614
▁</p>	-11.1614
▁</topic>	-11.1614
▁<View	-11.1614
▁<beans	-11.1614
▁<body	-11.1614
▁<br	-11.1614
▁<built-in	-11.1614
▁<char	-11.1614
▁<class	-11.1614
▁<groupId>org.springframework</groupId>	-11.1614
▁<iframe	-11.1614
▁<insert	-11.1614
▁<td>{{	-11.1614
▁<tiles:insertAttribute	-11.1614
▁<topic	-11.1614
▁<type	-11.1614
▁<vector>	-11.1614
▁<version>${org.springframework-version}</version>	-11.1614
▁<windows.h>	-11.1614
▁==>	-11.1614
▁>>"");	-11.1614
▁?,	-11.1614
▁@ResponseBody	-11.1614
▁@app.route('/')	-11.1614
▁A',	-11.1614
▁A()	-11.1614
▁API의	-11.1614
▁AQ->queue[AQ->rear]	-11.1614
▁AQ->rear	-11.1614
▁A[i][j];	-11.1614
▁Android	-11.1614
▁Animation	-11.1614
▁AnimationUtils.loadAnimation(getActivity(),	-11.1614
▁Apply(models.Model):	-11.1614
▁ArrayList<BDto>	-11.1614
▁ArrayList<T>	-11.1614
▁Artifact	-11.1614
▁AsyncTask<String,Void,String>{	-11.1614
▁Attr	-11.1614
▁A는	-11.1614
▁A배열을	-11.1614
▁A와	-11.1614
▁B;	-11.1614
▁BOARD	-11.1614
▁Background	-11.1614
▁BigInt.Int[0]	-11.1614
▁Bitmap	-11.1614
▁BoardCircle	-11.1614
▁Boolean	-11.1614
▁Bootstrap	-11.1614
▁BorderLayout.CENTER);	-11.1614
▁Box1	-11.1614
▁BufferedWriter	-11.1614
▁Bullet[i].exist	-11.1614
▁ByteBuffer	-11.1614
▁CALLBACK	-11.1614
▁COLLATE	-11.1614
▁CSV	-11.1614
▁CatDogMouse.KEYINPUT	-11.1614
▁Char	-11.1614
▁Charset.forName(""UTF-8"")));	-11.1614
▁Client	-11.1614
▁Code:	-11.1614
▁Command	-11.1614
▁Controller	-11.1614
▁Could	-11.1614
▁Crawled	-11.1614
▁D	-11.1614
▁DBAdapter	-11.1614
▁DBAdapter(MainActivity.this,	-11.1614
▁DB는	-11.1614
▁DEBUG:	-11.1614
▁Data;	-11.1614
▁DatabaseOpenHelper	-11.1614
▁DatagramPacket(recvBuffer,	-11.1614
▁DoubleStack.pop();	-11.1614
▁ENTER_DATA_REQUEST_CODE	-11.1614
▁Elem&	-11.1614
▁Employ	-11.1614
▁Enemy[i].exist	-11.1614
▁Enemy[i].nFrame	-11.1614
▁Enemy[i].nStay	-11.1614
▁Enemy[i].type	-11.1614
▁Enemy[i].y	-11.1614
▁FALSE	-11.1614
▁FALSE)	-11.1614
▁Facebook	-11.1614
▁FileReader	-11.1614
▁Filtering	-11.1614
▁Flask	-11.1614
▁Free	-11.1614
▁Frog	-11.1614
▁FullTime(name,	-11.1614
▁Function	-11.1614
▁GL_CLAMP);	-11.1614
▁GL_LINEAR);	-11.1614
▁GL_RGB,	-11.1614
▁GStack()	-11.1614
▁GStack<Double>	-11.1614
▁GStack<T>	-11.1614
▁Handle	-11.1614
▁HashMap<>();	-11.1614
▁HttpServletResponse	-11.1614
▁IDC_IPADDR,	-11.1614
▁ISR(vector,	-11.1614
▁ImageView	-11.1614
▁IndentationError:	-11.1614
▁IndexError:	-11.1614
▁Intent(this,	-11.1614
▁Item	-11.1614
▁JButton(""입력"");	-11.1614
▁JFrame{	-11.1614
▁JScrollPane(table);	-11.1614
▁JTable	-11.1614
▁JTextField();	-11.1614
▁KEY	-11.1614
▁Key	-11.1614
▁L)	-11.1614
▁Label	-11.1614
▁Label(window,	-11.1614
▁Linear	-11.1614
▁ListView	-11.1614
▁Log.i(""test"",	-11.1614
▁Loop	-11.1614
▁Lotto	-11.1614
▁MAX_SIZE;	-11.1614
▁Mac	-11.1614
▁Man	-11.1614
▁MapPoint	-11.1614
▁Map을	-11.1614
▁Math.random(),	-11.1614
▁Matrix&	-11.1614
▁Matrix&);	-11.1614
▁MessageBox(NULL,	-11.1614
▁Modal-Dialog를	-11.1614
▁NAME	-11.1614
▁NULL));	-11.1614
▁Name:	-11.1614
▁None)	-11.1614
▁Note	-11.1614
▁N은	-11.1614
▁ORA-04091:	-11.1614
▁OS	-11.1614
▁OUT	-11.1614
▁OUTER	-11.1614
▁O_CREAT	-11.1614
▁O_WRONLY	-11.1614
▁OpenGL에서	-11.1614
▁PC에서	-11.1614
▁PW,	-11.1614
▁PackageManager.PERMISSION_GRANTED)	-11.1614
▁Pilot	-11.1614
▁Plus(&num);	-11.1614
▁Point&,	-11.1614
▁PreferencesUtil.setIntPreferences(getActivity(),	-11.1614
▁Q	-11.1614
▁QApplication(sys.argv)	-11.1614
▁Quartz	-11.1614
▁Query	-11.1614
▁RECTANGLE*	-11.1614
▁RecycleAdt.Item(RecycleAdt.CHILD,	-11.1614
▁RecyclerView	-11.1614
▁Remove->PrevNode	-11.1614
▁ResultSet	-11.1614
▁Return	-11.1614
▁Runnable(){	-11.1614
▁SEARCH	-11.1614
▁SIZE2;	-11.1614
▁SOCKADDR_IN	-11.1614
▁SOCKET	-11.1614
▁SOCK_STREAM,	-11.1614
▁Select	-11.1614
▁Sequelize.INTEGER	-11.1614
▁Sequelize.STRING	-11.1614
▁SetColor(GREEN);	-11.1614
▁Short.MAX_VALUE)	-11.1614
▁SizePrice	-11.1614
▁SoComplex	-11.1614
▁Stock	-11.1614
▁Stock(""Boffo	-11.1614
▁String.format(	-11.1614
▁String[]{	-11.1614
▁String이	-11.1614
▁StructTest*	-11.1614
▁StudentT	-11.1614
▁System.arraycopy로	-11.1614
▁System.out.print(""2자리수	-11.1614
▁System.out.print((i+1)+"":	-11.1614
▁System.out.println(""A	-11.1614
▁System.out.println(""I'm	-11.1614
▁System.out.println(""Input	-11.1614
▁System.out.println(""no	-11.1614
▁System.out.println(""|1.	-11.1614
▁System.out.println(""이름	-11.1614
▁System.out.println(""이메일	-11.1614
▁System.out.println(result);	-11.1614
▁T*	-11.1614
▁T,	-11.1614
▁TCP서버를	-11.1614
▁Table	-11.1614
▁Tag	-11.1614
▁Thing	-11.1614
▁Tkinter	-11.1614
▁Toast.makeText(kakao.this,	-11.1614
▁Total	-11.1614
▁Transitional//EN""	-11.1614
▁TreeMap<String,	-11.1614
▁URL:	-11.1614
▁Unable	-11.1614
▁UnicodeEncodeError	-11.1614
▁Unit	-11.1614
▁V/11111111111111111:	-11.1614
▁V/2222222222222222:	-11.1614
▁View.OnClickListener(){	-11.1614
▁ViewHolder	-11.1614
▁WebApplicationContext:	-11.1614
▁What	-11.1614
▁Windows	-11.1614
▁World""	-11.1614
▁Wrong	-11.1614
▁ZeroMemory(&serveraddr,	-11.1614
▁[""B"",	-11.1614
▁['Aa',	-11.1614
▁[0,0,1,0],	-11.1614
▁[1,0]	-11.1614
▁[9,	-11.1614
▁[None,	-11.1614
▁[Tue	-11.1614
▁[photo3,	-11.1614
▁\n\n"");	-11.1614
▁][	-11.1614
▁^^	-11.1614
▁__VA_ARGS__;	-11.1614
▁__call__	-11.1614
▁_getch();	-11.1614
▁`ArrayList<String>[]	-11.1614
▁`NULL`을	-11.1614
▁`[1,	-11.1614
▁`false	-11.1614
▁`false`	-11.1614
▁`true	-11.1614
▁a=	-11.1614
▁a=random.randrange(1,100)	-11.1614
▁a[1]	-11.1614
▁a[]	-11.1614
▁a_col;	-11.1614
▁a_row);	-11.1614
▁aa[i]	-11.1614
▁account	-11.1614
▁accum[key]	-11.1614
▁active"">	-11.1614
▁activity	-11.1614
▁actmode;	-11.1614
▁admin	-11.1614
▁agendaId:	-11.1614
▁agi.getAgendaId(),	-11.1614
▁alert.show();	-11.1614
▁alpha	-11.1614
▁alpha;	-11.1614
▁also	-11.1614
▁android.app.Activity;	-11.1614
▁android.content.Context;	-11.1614
▁android.widget.Toast;	-11.1614
▁anonymous	-11.1614
▁another	-11.1614
▁answer;	-11.1614
▁apache	-11.1614
▁app.get('/',	-11.1614
▁apple	-11.1614
▁apply	-11.1614
▁arg);	-11.1614
▁arr)	-11.1614
▁array,	-11.1614
▁array[i][j]	-11.1614
▁array_word	-11.1614
▁arraylist	-11.1614
▁array의	-11.1614
▁arstage[ny][nx]	-11.1614
▁atoi(tmp);	-11.1614
▁a를	-11.1614
▁b1	-11.1614
▁background-image:	-11.1614
▁background1_x	-11.1614
▁background2_x	-11.1614
▁background_width	-11.1614
▁balance	-11.1614
▁base	-11.1614
▁bash	-11.1614
▁basic	-11.1614
▁beige	-11.1614
▁below	-11.1614
▁binary	-11.1614
▁bounds	-11.1614
▁br.readLine())	-11.1614
▁br.readLine();	-11.1614
▁btn-default	-11.1614
▁buffer,	-11.1614
▁button1	-11.1614
▁button1.configure(image=photo9,	-11.1614
▁button1.configure(image=ran1)	-11.1614
▁button1.grid(row=0,column=0)	-11.1614
▁button2	-11.1614
▁button2.configure(image=photo9,	-11.1614
▁button2.configure(image=ran1)	-11.1614
▁button2.grid(row=0,column=1)	-11.1614
▁bx]	-11.1614
▁b라는	-11.1614
▁b를	-11.1614
▁c++)	-11.1614
▁c0	-11.1614
▁c1	-11.1614
▁c2	-11.1614
▁calc(int(*pjumsu[3]),	-11.1614
▁call,	-11.1614
▁callBack:	-11.1614
▁called	-11.1614
▁cancel(true);	-11.1614
▁cardTableCode	-11.1614
▁ch;	-11.1614
▁charset=utf-8""	-11.1614
▁choice1	-11.1614
▁chr(0)	-11.1614
▁ciphers	-11.1614
▁class()	-11.1614
▁class=""container"">	-11.1614
▁class=""nav-item"">	-11.1614
▁class=""navbar-brand""	-11.1614
▁class=""row	-11.1614
▁class='form-control'	-11.1614
▁class와	-11.1614
▁clientInfo.portArray.get(0));	-11.1614
▁clientInfo.portArray.get(1));	-11.1614
▁clientSocket	-11.1614
▁clntAddr,	-11.1614
▁clntPort	-11.1614
▁close(srcfd);	-11.1614
▁clrscr();	-11.1614
▁cnt;	-11.1614
▁co	-11.1614
▁com	-11.1614
▁command=delet)	-11.1614
▁command=delet2)	-11.1614
▁comparison_idx	-11.1614
▁compiler	-11.1614
▁condition	-11.1614
▁connecting	-11.1614
▁connection.query(sql,	-11.1614
▁console.log('============================================');	-11.1614
▁console.log(data);	-11.1614
▁console.log(i);	-11.1614
▁console.log(result);	-11.1614
▁constant	-11.1614
▁contentType	-11.1614
▁controls	-11.1614
▁conversion	-11.1614
▁copy)	-11.1614
▁correct	-11.1614
▁count)	-11.1614
▁count,	-11.1614
▁count=0;	-11.1614
▁cout<<'\t'<<""성공하였습니다.""<<endl;	-11.1614
▁cp2_end);	-11.1614
▁css가	-11.1614
▁csv로	-11.1614
▁ctx.body	-11.1614
▁cur	-11.1614
▁curr	-11.1614
▁cursor.getString(cursor.getColumnIndexOrThrow(databaseHelper.USER_TABLE_COLUMN_NAME));	-11.1614
▁cursor.getString(cursor.getColumnIndexOrThrow(databaseHelper.USER_TABLE_COLUMN_TEL));	-11.1614
▁cursor:	-11.1614
▁cwd	-11.1614
▁d:	-11.1614
▁data"");	-11.1614
▁data){	-11.1614
▁dataList	-11.1614
▁dataToList	-11.1614
▁dataType:	-11.1614
▁data[],	-11.1614
▁data[i]	-11.1614
▁data[i].id	-11.1614
▁day_reset_time	-11.1614
▁db.session.query(Ended_event).filter(Ended_event.league_id	-11.1614
▁debug	-11.1614
▁delet()	-11.1614
▁delet2()	-11.1614
▁derived	-11.1614
▁dev.	-11.1614
▁df2.Mag:	-11.1614
▁dialog.show();	-11.1614
▁digit2);	-11.1614
▁discountprice);	-11.1614
▁dist	-11.1614
▁doesn't	-11.1614
▁drum[pitch]),	-11.1614
▁dtype=tf.float32)	-11.1614
▁dwValue	-11.1614
▁e.getID();	-11.1614
▁each)	-11.1614
▁ease-out;	-11.1614
▁eats...	-11.1614
▁elseif	-11.1614
▁encoding	-11.1614
▁encoding='utf-8')	-11.1614
▁encountered	-11.1614
▁endpoint	-11.1614
▁ends	-11.1614
▁epoch	-11.1614
▁err');	-11.1614
▁error)	-11.1614
▁ex);	-11.1614
▁ex.printStackTrace();	-11.1614
▁exception:	-11.1614
▁execution	-11.1614
▁exists	-11.1614
▁exit()	-11.1614
▁exp[i]	-11.1614
▁f.close()	-11.1614
▁f=1;	-11.1614
▁fac	-11.1614
▁false));	-11.1614
▁false`	-11.1614
▁fclose(file);	-11.1614
▁fcstTime;	-11.1614
▁fee;	-11.1614
▁filesize);	-11.1614
▁fin;	-11.1614
▁final로	-11.1614
▁find_index	-11.1614
▁float를	-11.1614
▁fm1	-11.1614
▁fm2	-11.1614
▁foo();	-11.1614
▁for(i=0;i<3;i++)	-11.1614
▁for(i=0;i<4;i++)	-11.1614
▁for(i=0;i<5;i++)	-11.1614
▁for(let	-11.1614
▁form.is_valid():	-11.1614
▁fprintf(stderr,	-11.1614
▁freqs[char]	-11.1614
▁front;	-11.1614
▁fscanf(f,	-11.1614
▁func,	-11.1614
▁func2)	-11.1614
▁function(key){	-11.1614
▁functions	-11.1614
▁fv[i	-11.1614
▁g(x)	-11.1614
▁g,	-11.1614
▁g.setColor(	-11.1614
▁g_drawmsg.color	-11.1614
▁g_user_count;	-11.1614
▁gas	-11.1614
▁gender,	-11.1614
▁gender;	-11.1614
▁generated	-11.1614
▁getContentPane();	-11.1614
▁getStickiesArray();	-11.1614
▁getTask	-11.1614
▁getchar();	-11.1614
▁getline(cin,	-11.1614
▁git	-11.1614
▁give	-11.1614
▁grid	-11.1614
▁h3	-11.1614
▁handle	-11.1614
▁headers	-11.1614
▁headers:	-11.1614
▁height.length;	-11.1614
▁height=""40"">	-11.1614
▁height=400)	-11.1614
▁high);	-11.1614
▁hostIp,	-11.1614
▁hptr	-11.1614
▁hstrrev(char*	-11.1614
▁https	-11.1614
▁https://github.com/kelektiv/node.bcrypt.js/releases/download/v3.0.1/bcrypt_lib-v3.0.1-node-v57-win32-x64-unknown.tar.gz	-11.1614
▁i<4;	-11.1614
▁i<schedule_num;	-11.1614
▁id:	-11.1614
▁id=""a1""	-11.1614
▁id=""dataSource""	-11.1614
▁id=""sqlSessionFactory""	-11.1614
▁idx++;	-11.1614
▁idx,	-11.1614
▁idx;	-11.1614
▁if((buffer[i]	-11.1614
▁if(*a	-11.1614
▁if(choice	-11.1614
▁if(err){	-11.1614
▁if(isCancelled()){	-11.1614
▁if(isEmpty())	-11.1614
▁if(line==null){	-11.1614
▁if(nWinner1	-11.1614
▁if(retval	-11.1614
▁if문에서	-11.1614
▁if문을	-11.1614
▁image;	-11.1614
▁image=photo1,	-11.1614
▁image=photo2,	-11.1614
▁image_paths	-11.1614
▁image_urls	-11.1614
▁img1	-11.1614
▁img2	-11.1614
▁img3	-11.1614
▁img4	-11.1614
▁img5	-11.1614
▁img6	-11.1614
▁img7	-11.1614
▁img8	-11.1614
▁img9	-11.1614
▁import*	-11.1614
▁importance	-11.1614
▁import해서	-11.1614
▁index.html	-11.1614
▁index0	-11.1614
▁individual_count;	-11.1614
▁infile	-11.1614
▁inflater,	-11.1614
▁initial-scale=1,	-11.1614
▁initialize	-11.1614
▁inline-block;	-11.1614
▁inputNumber	-11.1614
▁input[][3],	-11.1614
▁insert(int	-11.1614
▁inside	-11.1614
▁instagram	-11.1614
▁int(11)	-11.1614
▁int);	-11.1614
▁int,	-11.1614
▁intStart	-11.1614
▁int[10];	-11.1614
▁int[4];	-11.1614
▁int[n*n+1];	-11.1614
▁integral	-11.1614
▁interface는	-11.1614
▁int형을	-11.1614
▁inventors	-11.1614
▁ioe)	-11.1614
▁ios::in	-11.1614
▁isContaining(const	-11.1614
▁isValid	-11.1614
▁island	-11.1614
▁item,	-11.1614
▁itoa	-11.1614
▁i번째	-11.1614
▁j));	-11.1614
▁j<num_output;	-11.1614
▁jTable1.getSelectedRow();	-11.1614
▁java.io.*;	-11.1614
▁java.io.InputStreamReader;	-11.1614
▁java.lang.ClassCastException:	-11.1614
▁java.util.Scanner;	-11.1614
▁java.util.logging.Logger.getLogger(MainFrame.class.getName()).log(java.util.logging.Level.SEVERE,	-11.1614
▁javax.swing.JButton	-11.1614
▁javax.swing.JButton();	-11.1614
▁javax.swing.JLabel	-11.1614
▁javax.swing.JLabel();	-11.1614
▁jquery로	-11.1614
▁jquery에서	-11.1614
▁k++){	-11.1614
▁key)	-11.1614
▁key1	-11.1614
▁keys[keysi++];	-11.1614
▁keyword=keyword)	-11.1614
▁key가	-11.1614
▁key값을	-11.1614
▁kkk	-11.1614
▁k번째	-11.1614
▁l)	-11.1614
▁label,	-11.1614
▁label1	-11.1614
▁label1.grid(row=1,column=0)	-11.1614
▁label2.grid(row=1,column=1)	-11.1614
▁lacksDMA	-11.1614
▁language=""$$$""	-11.1614
▁language=""java""	-11.1614
▁leaf->value)	-11.1614
▁leftt)	-11.1614
▁legacy	-11.1614
▁len)	-11.1614
▁line-height:	-11.1614
▁line.split(""<br>"");	-11.1614
▁list)	-11.1614
▁list;	-11.1614
▁list[i]	-11.1614
▁listening	-11.1614
▁local	-11.1614
▁location;	-11.1614
▁logger	-11.1614
▁lowest_cost	-11.1614
▁lowest_cost_node	-11.1614
▁lst_temp	-11.1614
▁lucifer	-11.1614
▁mContext;	-11.1614
▁mCurPercentage	-11.1614
▁manage.$$$	-11.1614
▁manager	-11.1614
▁mapView,	-11.1614
▁margin:0;	-11.1614
▁mark	-11.1614
▁max;	-11.1614
▁maxSpeed)	-11.1614
▁mdn을	-11.1614
▁me	-11.1614
▁memberVO	-11.1614
▁menu;	-11.1614
▁min_dist	-11.1614
▁models.IntegerField(null=False,)	-11.1614
▁modify	-11.1614
▁money)	-11.1614
▁month	-11.1614
▁month,	-11.1614
▁more을	-11.1614
▁mouseEntered(MouseEvent	-11.1614
▁mouseExited(MouseEvent	-11.1614
▁mousePressed(MouseEvent	-11.1614
▁movie	-11.1614
▁multi	-11.1614
▁mutating,	-11.1614
▁myMoney	-11.1614
▁myRAFile.readChar();	-11.1614
▁my_strstr(char*	-11.1614
▁myclass	-11.1614
▁n2	-11.1614
▁nHorseChoice1)	-11.1614
▁nSize	-11.1614
▁nWinner1,	-11.1614
▁name=""configLocation""	-11.1614
▁name[i	-11.1614
▁new_node->next	-11.1614
▁new_path	-11.1614
▁news->front	-11.1614
▁next()	-11.1614
▁night_reset_time	-11.1614
▁noCute	-11.1614
▁no_of_accounts	-11.1614
▁node.js를	-11.1614
▁node.js에서	-11.1614
▁nodejs를	-11.1614
▁node를	-11.1614
▁non-class	-11.1614
▁non-static	-11.1614
▁nonce	-11.1614
▁nothing	-11.1614
▁ns[ny	-11.1614
▁null을	-11.1614
▁num){	-11.1614
▁num2,	-11.1614
▁numLen	-11.1614
▁numOfApple	-11.1614
▁numOfVertex;	-11.1614
▁num[0];	-11.1614
▁num[1];	-11.1614
▁num[2];	-11.1614
▁number_list	-11.1614
▁number를	-11.1614
▁numerical	-11.1614
▁o1,	-11.1614
▁obj:	-11.1614
▁objects,	-11.1614
▁object가	-11.1614
▁occurred	-11.1614
▁octave+note[pitch]	-11.1614
▁off	-11.1614
▁onActivityResult(int	-11.1614
▁onCreateView(LayoutInflater	-11.1614
▁onDelete:	-11.1614
▁onResume()	-11.1614
▁once	-11.1614
▁openCardId	-11.1614
▁openCardId2	-11.1614
▁openpyxl	-11.1614
▁openpyxl을	-11.1614
▁operator<<(ostream&	-11.1614
▁opr1	-11.1614
▁opr2	-11.1614
▁ore[0]	-11.1614
▁ore[1]	-11.1614
▁ore[2]	-11.1614
▁org.apache.catalina.connector.RequestFacade	-11.1614
▁org.springframework.beans.factory.support.AbstractAutowireCapableBeanFactory.createBean(AbstractAutowireCapableBeanFactory.java:515)	-11.1614
▁org.springframework.beans.factory.support.AbstractBeanFactory.doGetBean(AbstractBeanFactory.java:318)	-11.1614
▁org.springframework.beans.factory.support.AbstractBeanFactory.getBean(AbstractBeanFactory.java:199)	-11.1614
▁org.springframework.beans.factory.support.AbstractBeanFactory.lambda$doGetBean$0(AbstractBeanFactory.java:320)	-11.1614
▁org.springframework.beans.factory.support.DefaultSingletonBeanRegistry.getSingleton(DefaultSingletonBeanRegistry.java:222)	-11.1614
▁org.springframework.web.multipart.MultipartHttpServletRequest	-11.1614
▁ostream&	-11.1614
▁other	-11.1614
▁over	-11.1614
▁overTime	-11.1614
▁own	-11.1614
▁p++)	-11.1614
▁p,	-11.1614
▁p->link;	-11.1614
▁p->next;	-11.1614
▁p1->coefficient;	-11.1614
▁p2->order;	-11.1614
▁p3	-11.1614
▁p:	-11.1614
▁p_file);	-11.1614
▁padding:0;	-11.1614
▁pageNumber	-11.1614
▁parStart	-11.1614
▁paramMap[""pName""]	-11.1614
▁parent.getItemAtPosition(position);	-11.1614
▁path1	-11.1614
▁path2	-11.1614
▁people[NUM_USER];	-11.1614
▁phone	-11.1614
▁photo1	-11.1614
▁photo2	-11.1614
▁photo3	-11.1614
▁photo4	-11.1614
▁photo4,	-11.1614
▁photo5	-11.1614
▁photo5,	-11.1614
▁photo6	-11.1614
▁photo6,	-11.1614
▁photo7	-11.1614
▁photo7,	-11.1614
▁photo8	-11.1614
▁photo8]	-11.1614
▁photo9	-11.1614
▁pinsRepaint	-11.1614
▁pivot	-11.1614
▁plainText	-11.1614
▁play	-11.1614
▁playing	-11.1614
▁pm2	-11.1614
▁print(""	-11.1614
▁print('#	-11.1614
▁print(i)	-11.1614
▁print(num1,	-11.1614
▁printf(""%-20lf"",	-11.1614
▁printf(""%dth	-11.1614
▁printf(""%p\n"",	-11.1614
▁printf(""(%d,	-11.1614
▁printf(""Enter	-11.1614
▁printf(""If	-11.1614
▁printf(""Input	-11.1614
▁printf(""The	-11.1614
▁printf(""다시	-11.1614
▁printf(""당신은	-11.1614
▁printf(""삽입할	-11.1614
▁printf(""총	-11.1614
▁printing	-11.1614
▁productName;	-11.1614
▁protected:	-11.1614
▁ptr);	-11.1614
▁push(T	-11.1614
▁puts(str);	-11.1614
▁pyinstaller	-11.1614
▁pymysql	-11.1614
▁q;	-11.1614
▁qry	-11.1614
▁quantity;	-11.1614
▁quartz	-11.1614
▁queue.pop()	-11.1614
▁queue에	-11.1614
▁quit.	-11.1614
▁r);	-11.1614
▁r[a-1][b-1]	-11.1614
▁r_matrix[i]	-11.1614
▁ranNum	-11.1614
▁random.nextInt(101);	-11.1614
▁random.randint(2,	-11.1614
▁range(0,10):	-11.1614
▁range(1,4)	-11.1614
▁range(1,5)	-11.1614
▁range(10):	-11.1614
▁ready	-11.1614
▁rear;	-11.1614
▁rec	-11.1614
▁received	-11.1614
▁recipe	-11.1614
▁recipeDivide	-11.1614
▁recipeList	-11.1614
▁record.getQuantity()	-11.1614
▁record;	-11.1614
▁recordLength	-11.1614
▁recvBuffer.length);	-11.1614
▁recvPacket2	-11.1614
▁regdate	-11.1614
▁register	-11.1614
▁registered	-11.1614
▁reject(err);	-11.1614
▁relative;	-11.1614
▁render	-11.1614
▁repaint();	-11.1614
▁resources	-11.1614
▁respBody.put(""message"",	-11.1614
▁response):	-11.1614
▁results);	-11.1614
▁ret	-11.1614
▁return이	-11.1614
▁right;	-11.1614
▁route	-11.1614
▁rs);	-11.1614
▁runOnUiThread(new	-11.1614
▁runs,	-11.1614
▁s++,	-11.1614
▁s:	-11.1614
▁s[i]	-11.1614
▁sample	-11.1614
▁scan.nextint();	-11.1614
▁scanf_s(""	-11.1614
▁scanner.next();	-11.1614
▁scapy.all.send(scapy.all.ARP(op=2,	-11.1614
▁scoreB	-11.1614
▁script.	-11.1614
▁sec)	-11.1614
▁secret:	-11.1614
▁select;	-11.1614
▁self.a	-11.1614
▁self.b	-11.1614
▁self.func(*args)	-11.1614
▁self.input_0	-11.1614
▁sendBuffer	-11.1614
▁sending	-11.1614
▁sequence	-11.1614
▁serveraddr;	-11.1614
▁servicePort),	-11.1614
▁sess	-11.1614
▁setResizable(false);	-11.1614
▁size:	-11.1614
▁sizeOfArray	-11.1614
▁sizeof(int)	-11.1614
▁sizeof(int);	-11.1614
▁sleep	-11.1614
▁sleeps...	-11.1614
▁slide();	-11.1614
▁sm	-11.1614
▁sms	-11.1614
▁socket(AF_INET,	-11.1614
▁socket.io로	-11.1614
▁speed,	-11.1614
▁split	-11.1614
▁sqlalchemy	-11.1614
▁srand(time(NULL));	-11.1614
▁src=""<%=uploadPath2	-11.1614
▁ss	-11.1614
▁st.countTokens();	-11.1614
▁st;	-11.1614
▁stck	-11.1614
▁stck;	-11.1614
▁stck[top];	-11.1614
▁std	-11.1614
▁std.	-11.1614
▁std::cout<<""----------------------------""<<std::endl;	-11.1614
▁stdID	-11.1614
▁stmt	-11.1614
▁stock2	-11.1614
▁story	-11.1614
▁str2	-11.1614
▁str2)	-11.1614
▁str[i]	-11.1614
▁strcpy(this->name,	-11.1614
▁strict';	-11.1614
▁stringstream	-11.1614
▁str에	-11.1614
▁style=""display:	-11.1614
▁subject	-11.1614
▁subplot	-11.1614
▁subtraction!\n"");	-11.1614
▁sum);	-11.1614
▁super(name,	-11.1614
▁support	-11.1614
▁switch문을	-11.1614
▁symbol:	-11.1614
▁sysdate	-11.1614
▁system(""pause"");	-11.1614
▁sz;	-11.1614
▁t3h_06;	-11.1614
▁ta_c,	-11.1614
▁ta_h	-11.1614
▁table.type09	-11.1614
▁table1[i][j]=a	-11.1614
▁tail	-11.1614
▁tail->link	-11.1614
▁tbody	-11.1614
▁temp1);	-11.1614
▁temp1=pop()	-11.1614
▁temp2->next;	-11.1614
▁temp2=pop()	-11.1614
▁tempBuffer,	-11.1614
▁tempValue;	-11.1614
▁templates	-11.1614
▁test.$$$	-11.1614
▁test2	-11.1614
▁test_list	-11.1614
▁text,	-11.1614
▁tf.Session()	-11.1614
▁this.map){	-11.1614
▁this.number	-11.1614
▁this.timer	-11.1614
▁threads	-11.1614
▁time.sleep(0.5)	-11.1614
▁time.sleep(1)	-11.1614
▁timeout)	-11.1614
▁timestamp	-11.1614
▁tk.Button(root,	-11.1614
▁tk.Label(root,	-11.1614
▁tk.PhotoImage(file	-11.1614
▁tk.PhotoImage(file=img1)	-11.1614
▁tk.PhotoImage(file=img2)	-11.1614
▁tk.PhotoImage(file=img3)	-11.1614
▁tk.PhotoImage(file=img4)	-11.1614
▁tk.PhotoImage(file=img5)	-11.1614
▁tk.PhotoImage(file=img6)	-11.1614
▁tk.PhotoImage(file=img7)	-11.1614
▁tk.PhotoImage(file=img8)	-11.1614
▁tk.PhotoImage(file=img9)	-11.1614
▁tk.Toplevel()	-11.1614
▁tmp_m,	-11.1614
▁toPrint	-11.1614
▁today	-11.1614
▁too	-11.1614
▁top++;	-11.1614
▁top--;	-11.1614
▁total_ht.sh:	-11.1614
▁total_waiting_people;	-11.1614
▁total_waiting_time;	-11.1614
▁tree	-11.1614
▁trigger	-11.1614
▁trigger/function	-11.1614
▁truck	-11.1614
▁true`	-11.1614
▁true}	-11.1614
▁true},	-11.1614
▁true가	-11.1614
▁try_cnt	-11.1614
▁tshirts	-11.1614
▁two();	-11.1614
▁type)	-11.1614
▁types	-11.1614
▁types:	-11.1614
▁u'image_id':	-11.1614
▁ui를	-11.1614
▁undefined가	-11.1614
▁unicode	-11.1614
▁uri=""http://java.sun.com/jsp/jstl/core""%>	-11.1614
▁url1	-11.1614
▁urlpatterns	-11.1614
▁url에서	-11.1614
▁use	-11.1614
▁user,	-11.1614
▁userId:	-11.1614
▁utf-8로	-11.1614
▁utf8_unicode_ci	-11.1614
▁v1,	-11.1614
▁v8::NewStringType::kNormal)	-11.1614
▁validation	-11.1614
▁value=""10"">10</option>	-11.1614
▁value=""info""	-11.1614
▁value[i];	-11.1614
▁value를	-11.1614
▁value에	-11.1614
▁vehicle	-11.1614
▁velocity	-11.1614
▁via	-11.1614
▁video_h	-11.1614
▁view;	-11.1614
▁were	-11.1614
▁werstr	-11.1614
▁what	-11.1614
▁width=400,	-11.1614
▁without	-11.1614
▁worked	-11.1614
▁ws.Cells(now_column,	-11.1614
▁x))	-11.1614
▁x<20;	-11.1614
▁x=p[0]	-11.1614
▁xmlns=""http://www.springframework.org/schema/beans""	-11.1614
▁x를	-11.1614
▁y))	-11.1614
▁y));	-11.1614
▁y1,	-11.1614
▁y1;	-11.1614
▁y<18;	-11.1614
▁y=p[1]	-11.1614
▁yield	-11.1614
▁y를	-11.1614
▁z))	-11.1614
▁z);	-11.1614
▁z-index:	-11.1614
▁{""score"":	-11.1614
▁{//	-11.1614
▁{1,	-11.1614
▁{return	-11.1614
▁}",1	-11.1614
▁}PersonArray;	-11.1614
▁}```	-11.1614
▁}}</td>	-11.1614
▁ᄂ	-11.1614
▁ᄒᄒ	-11.1614
▁ᅮᅮ?	-11.1614
▁ᅲ",3	-11.1614
▁ᅲᅮ	-11.1614
▁가격이	-11.1614
▁가능)	-11.1614
▁가능하면	-11.1614
▁가로	-11.1614
▁가로로	-11.1614
▁가르침	-11.1614
▁가르키는	-11.1614
▁가비지	-11.1614
▁가위바위보	-11.1614
▁가이드를	-11.1614
▁가정합니다.	-11.1614
▁각종	-11.1614
▁감사하겠습니다!	-11.1614
▁감사하겠습니다.",5	-11.1614
▁감지	-11.1614
▁값들이	-11.1614
▁값만을	-11.1614
▁같다.	-11.1614
▁같던데	-11.1614
▁같은데요.	-11.1614
▁같지	-11.1614
▁개발시	-11.1614
▁개발자가	-11.1614
▁개발중인데	-11.1614
▁개발하는	-11.1614
▁개별로	-11.1614
▁개봉일	-11.1614
▁개인	-11.1614
▁개체의	-11.1614
▁객체와	-11.1614
▁갯수이고	-11.1614
▁건가요?",2	-11.1614
▁건가요?,"제가	-11.1614
▁건가요??	-11.1614
▁걸까요	-11.1614
▁검색으로	-11.1614
▁검색해보니	-11.1614
▁검색해봐도	-11.1614
▁검색해야	-11.1614
▁것들이	-11.1614
▁것인데요.	-11.1614
▁게시판에	-11.1614
▁겪고	-11.1614
▁결과값은	-11.1614
▁결과인	-11.1614
▁결과입니다.	-11.1614
▁결론적으로	-11.1614
▁결정	-11.1614
▁겹쳐서	-11.1614
▁계산이	-11.1614
▁계산하고	-11.1614
▁계산한	-11.1614
▁계신	-11.1614
▁고민을	-11.1614
▁고민이	-11.1614
▁곱하기	-11.1614
▁곳을	-11.1614
▁공격	-11.1614
▁공부중인데	-11.1614
▁공식	-11.1614
▁과연	-11.1614
▁과정에	-11.1614
▁관련하여	-11.1614
▁관심이	-11.1614
▁괜찮은데	-11.1614
▁구매	-11.1614
▁구문으로	-11.1614
▁구성된	-11.1614
▁구조입니다.	-11.1614
▁구조체에	-11.1614
▁구하면	-11.1614
▁구현은	-11.1614
▁구현중인데	-11.1614
▁궁금하여	-11.1614
▁궁금합니다,"```	-11.1614
▁궁금합니다.,"```	-11.1614
▁그래서,	-11.1614
▁그러는	-11.1614
▁그림과	-11.1614
▁그림에	-11.1614
▁글들을	-11.1614
▁글씨가	-11.1614
▁금액을	-11.1614
▁기름을	-11.1614
▁까진	-11.1614
▁꼭지점의	-11.1614
▁꽉	-11.1614
▁나고	-11.1614
▁나누고	-11.1614
▁나머지가	-11.1614
▁나오더라구요.	-11.1614
▁나오면서	-11.1614
▁나올까요?	-11.1614
▁나옵니다...	-11.1614
▁나타내려고	-11.1614
▁나타내려면	-11.1614
▁날짜로	-11.1614
▁납니다...	-11.1614
▁내용과	-11.1614
▁내용에	-11.1614
▁내장	-11.1614
▁너비	-11.1614
▁널을	-11.1614
▁넓이와	-11.1614
▁넣기|4.	-11.1614
▁넣어도	-11.1614
▁넣어주는	-11.1614
▁넣어주세요.][1]	-11.1614
▁넣어줘야	-11.1614
▁넣을수	-11.1614
▁네비게이션	-11.1614
▁노출	-11.1614
▁노트북	-11.1614
▁누르는	-11.1614
▁누르면,	-11.1614
▁누를시	-11.1614
▁눌러도	-11.1614
▁다들	-11.1614
▁다릅니다.	-11.1614
▁다음으로	-11.1614
▁다음은	-11.1614
▁다음줄로	-11.1614
▁단에서	-11.1614
▁단위	-11.1614
▁달라지는	-11.1614
▁달력을	-11.1614
▁담고	-11.1614
▁담아서	-11.1614
▁답변해주셔서	-11.1614
▁답은	-11.1614
▁대기를	-11.1614
▁대부분	-11.1614
▁대상을	-11.1614
▁대야할지	-11.1614
▁대용량	-11.1614
▁대화를	-11.1614
▁더하기	-11.1614
▁데이터들을	-11.1614
▁데이터와	-11.1614
▁도는	-11.1614
▁도데체	-11.1614
▁도메인을	-11.1614
▁도와주세요!	-11.1614
▁독립적으로	-11.1614
▁독학으로	-11.1614
▁돌면서	-11.1614
▁동영상이	-11.1614
▁동이가	-11.1614
▁동작합니다.	-11.1614
▁되고,	-11.1614
▁되는거	-11.1614
▁되어있는데	-11.1614
▁되었습니다	-11.1614
▁되었을	-11.1614
▁되지가	-11.1614
▁된건지	-11.1614
▁된다면	-11.1614
▁될까요?",4	-11.1614
▁될줄	-11.1614
▁됩니다..	-11.1614
▁드리게	-11.1614
▁드립니다.,"안녕하세요	-11.1614
▁들	-11.1614
▁들어가게	-11.1614
▁들어가고	-11.1614
▁들어가는데	-11.1614
▁들어가는지	-11.1614
▁들어오면	-11.1614
▁들어올	-11.1614
▁들여쓰기를	-11.1614
▁등록된	-11.1614
▁등록이	-11.1614
▁등록한	-11.1614
▁디렉토리에	-11.1614
▁딕셔너리로	-11.1614
▁딕셔너리에서	-11.1614
▁딜레이를	-11.1614
▁때도	-11.1614
▁때문에,	-11.1614
▁때에는	-11.1614
▁떄	-11.1614
▁떠서	-11.1614
▁떠오르지	-11.1614
▁떠요.	-11.1614
▁또한,	-11.1614
▁뜨는지	-11.1614
▁뜨더라구요.	-11.1614
▁뜨던데	-11.1614
▁뜨며	-11.1614
▁뜻이	-11.1614
▁띄어쓰기	-11.1614
▁띄우기	-11.1614
▁띄우려고	-11.1614
▁라이브러리에서	-11.1614
▁랑	-11.1614
▁레벨	-11.1614
▁레이블	-11.1614
▁레이아웃을	-11.1614
▁레이어	-11.1614
▁레퍼런스	-11.1614
▁로그에	-11.1614
▁로직에	-11.1614
▁리스너를	-11.1614
▁리스트는	-11.1614
▁링크에	-11.1614
▁마땅한	-11.1614
▁만드려면	-11.1614
▁만들때	-11.1614
▁만들려면	-11.1614
▁만들어지는	-11.1614
▁만들었는데요	-11.1614
▁많네요.	-11.1614
▁많은데	-11.1614
▁많을	-11.1614
▁말을	-11.1614
▁말하는	-11.1614
▁맞는건가요?	-11.1614
▁맞추는	-11.1614
▁맞춰	-11.1614
▁매개변수가	-11.1614
▁매도	-11.1614
▁매수	-11.1614
▁맵	-11.1614
▁머리가	-11.1614
▁메뉴가	-11.1614
▁메뉴에	-11.1614
▁메모리가	-11.1614
▁메모장	-11.1614
▁메서드의	-11.1614
▁메세지는	-11.1614
▁메소드만	-11.1614
▁메소드인	-11.1614
▁메인함수에서	-11.1614
▁메인화면에	-11.1614
▁메일	-11.1614
▁몇개	-11.1614
▁몇개인지	-11.1614
▁몇번	-11.1614
▁모르겠습니다.",4	-11.1614
▁모르겠어요ᅲᅲ	-11.1614
▁모릅니다.	-11.1614
▁목적은	-11.1614
▁목표는	-11.1614
▁못하겠어서	-11.1614
▁무엇이라고	-11.1614
▁무엇일까요?	-11.1614
▁무한루프가	-11.1614
▁무한루프에	-11.1614
▁묶어서	-11.1614
▁문법적으로	-11.1614
▁문서에	-11.1614
▁문서의	-11.1614
▁문이	-11.1614
▁문자열과	-11.1614
▁문제로	-11.1614
▁문제에서	-11.1614
▁문제이고	-11.1614
▁문제인가요	-11.1614
▁문제인가요?	-11.1614
▁문제입니다	-11.1614
▁문제점은	-11.1614
▁문제점이	-11.1614
▁뭐냐면	-11.1614
▁뭔가요?",3	-11.1614
▁밑에는	-11.1614
▁밑에서	-11.1614
▁밑줄	-11.1614
▁바꿀때	-11.1614
▁바꿔도	-11.1614
▁바꿔야	-11.1614
▁바랍니다.	-11.1614
▁박스를	-11.1614
▁박스의	-11.1614
▁반면에	-11.1614
▁반복을	-11.1614
▁반복자의	-11.1614
▁반복한다.	-11.1614
▁받고,	-11.1614
▁받아오는데	-11.1614
▁받아오려면	-11.1614
▁받지	-11.1614
▁발생을	-11.1614
▁발생합니다	-11.1614
▁방법.	-11.1614
▁방법과	-11.1614
▁방법이라고	-11.1614
▁방식의	-11.1614
▁배수	-11.1614
▁배열값	-11.1614
▁배열인	-11.1614
▁배운지	-11.1614
▁버튼으로	-11.1614
▁버퍼를	-11.1614
▁버퍼에	-11.1614
▁번호의	-11.1614
▁범위가	-11.1614
▁범위의	-11.1614
▁범죄	-11.1614
▁법,"$$$에서	-11.1614
▁법은	-11.1614
▁벡터를	-11.1614
▁벡터에	-11.1614
▁변동이	-11.1614
▁변수,	-11.1614
▁변수와	-11.1614
▁변환하고	-11.1614
▁변환할	-11.1614
▁보기|2.	-11.1614
▁보기를	-11.1614
▁보내려고	-11.1614
▁보시는	-11.1614
▁보아	-11.1614
▁보아도	-11.1614
▁보여주세요.	-11.1614
▁보여준다	-11.1614
▁보여지게	-11.1614
▁보이지가	-11.1614
▁복사생성자가	-11.1614
▁복사하고	-11.1614
▁부분으로	-11.1614
▁부분이다.	-11.1614
▁부여	-11.1614
▁부족한	-11.1614
▁부착	-11.1614
▁부탁드리겠습니다	-11.1614
▁부탁드립니다!!	-11.1614
▁부탁드립니다.**	-11.1614
▁부탁드립니다...	-11.1614
▁불가능하다면	-11.1614
▁불가능한	-11.1614
▁불러올때	-11.1614
▁붙이고	-11.1614
▁뷰의	-11.1614
▁비교하여	-11.1614
▁비교할	-11.1614
▁비동기적으로	-11.1614
▁비움	-11.1614
▁빨간색	-11.1614
▁뽑아내고	-11.1614
▁뽑아서	-11.1614
▁사실을	-11.1614
▁사용법을	-11.1614
▁사용은	-11.1614
▁사용하는게	-11.1614
▁사용한다고	-11.1614
▁사용했는데	-11.1614
▁사운드	-11.1614
▁사진과	-11.1614
▁사항이	-11.1614
▁삭제가	-11.1614
▁삼성동	-11.1614
▁삽입하는	-11.1614
▁삽질	-11.1614
▁상속받는	-11.1614
▁상영시간	-11.1614
▁상태	-11.1614
▁상품을	-11.1614
▁상황에	-11.1614
▁색	-11.1614
▁색상을	-11.1614
▁생각엔	-11.1614
▁생각으로는	-11.1614
▁생각하면	-11.1614
▁생각했는데,	-11.1614
▁생성,	-11.1614
▁생성과	-11.1614
▁생성되지	-11.1614
▁생성이	-11.1614
▁생성자로	-11.1614
▁생성하게	-11.1614
▁생성하려고	-11.1614
▁생성하지	-11.1614
▁서로를	-11.1614
▁서비스에	-11.1614
▁선언하지	-11.1614
▁선언해서	-11.1614
▁선언해야	-11.1614
▁선택시	-11.1614
▁선택하고	-11.1614
▁설명은	-11.1614
▁설명하자면	-11.1614
▁설명해주세요.	-11.1614
▁설치하고	-11.1614
▁설치할려고	-11.1614
▁성공"");	-11.1614
▁성공을	-11.1614
▁성능	-11.1614
▁성능에	-11.1614
▁성능을	-11.1614
▁세로줄은	-11.1614
▁세션	-11.1614
▁셀	-11.1614
▁소속	-11.1614
▁소스코드도	-11.1614
▁소켓으로	-11.1614
▁속도를	-11.1614
▁속성을	-11.1614
▁쇼핑몰	-11.1614
▁수"");	-11.1614
▁수량을	-11.1614
▁수업을	-11.1614
▁수열	-11.1614
▁수정하면	-11.1614
▁수정한	-11.1614
▁수정할	-11.1614
▁수학	-11.1614
▁수행하는데	-11.1614
▁수행할	-11.1614
▁순	-11.1614
▁순수	-11.1614
▁숫자들의	-11.1614
▁숫자의	-11.1614
▁쉽고	-11.1614
▁스크립트는	-11.1614
▁스타일	-11.1614
▁스택오버플로우	-11.1614
▁스튜디오로	-11.1614
▁시도	-11.1614
▁시스템이	-11.1614
▁시작하기|3.	-11.1614
▁시작할때	-11.1614
▁시작합니다.	-11.1614
▁시작해서	-11.1614
▁시켜보면	-11.1614
▁시키는	-11.1614
▁실수의	-11.1614
▁실행도	-11.1614
▁실행되면서	-11.1614
▁실행된다는	-11.1614
▁실행시키고	-11.1614
▁실행하게	-11.1614
▁실행하기	-11.1614
▁실행하는데	-11.1614
▁실행하니	-11.1614
▁실행해	-11.1614
▁실행해보면	-11.1614
▁싶고	-11.1614
▁싶습니다.",4	-11.1614
▁싶습니다.",5	-11.1614
▁싶습니다..	-11.1614
▁싶을	-11.1614
▁쌓는	-11.1614
▁썼습니다.	-11.1614
▁쓰나요?,"	-11.1614
▁쓰라고	-11.1614
▁쓰레드를	-11.1614
▁쓰면서	-11.1614
▁씩	-11.1614
▁아니더라도	-11.1614
▁아닌데	-11.1614
▁아닌지를	-11.1614
▁아닙니다.	-11.1614
▁아마도	-11.1614
▁아시겠지만	-11.1614
▁아이디가	-11.1614
▁아이템의	-11.1614
▁안나오고	-11.1614
▁안나오네요.	-11.1614
▁안되고,	-11.1614
▁안되나요?	-11.1614
▁안되어서	-11.1614
▁안됩니다..	-11.1614
▁않는것	-11.1614
▁않더라구요.	-11.1614
▁않습니까?	-11.1614
▁않아요.	-11.1614
▁알게되었습니다.	-11.1614
▁알겠는데,	-11.1614
▁알람이	-11.1614
▁알려주실수	-11.1614
▁알수가	-11.1614
▁알아내려면	-11.1614
▁알아낼	-11.1614
▁알지	-11.1614
▁앞	-11.1614
▁앞서	-11.1614
▁앱에서	-11.1614
▁앱이	-11.1614
▁약간	-11.1614
▁양자물리학	-11.1614
▁어느걸	-11.1614
▁어느부분이	-11.1614
▁어디서부터	-11.1614
▁어디에서	-11.1614
▁어딘가에	-11.1614
▁어떡하면	-11.1614
▁어떤것을	-11.1614
▁어떤방식으로	-11.1614
▁어떻게든	-11.1614
▁어떻게하는지	-11.1614
▁어떻게해야	-11.1614
▁어떻게해야하나요?	-11.1614
▁어떻게해야하나요?,4	-11.1614
▁어떻게해야하죠?	-11.1614
▁어떻게해야하죠?,"	-11.1614
▁어차피	-11.1614
▁어플리케이션을	-11.1614
▁어플이	-11.1614
▁언어	-11.1614
▁언어가	-11.1614
▁언어는	-11.1614
▁얻어	-11.1614
▁업데이트가	-11.1614
▁없나요?",5	-11.1614
▁없네요	-11.1614
▁없네요.	-11.1614
▁없네요..	-11.1614
▁없는것	-11.1614
▁없어보이는데	-11.1614
▁없을까요	-11.1614
▁없음	-11.1614
▁에러도	-11.1614
▁에러만	-11.1614
▁에서는	-11.1614
▁에선	-11.1614
▁엘리먼트가	-11.1614
▁여기저기	-11.1614
▁여백을	-11.1614
▁여백이	-11.1614
▁여쭤봅니다.	-11.1614
▁역할	-11.1614
▁역할이	-11.1614
▁연동하여	-11.1614
▁연산이	-11.1614
▁연산자가	-11.1614
▁연산자는	-11.1614
▁연속으로	-11.1614
▁열고	-11.1614
▁영어가	-11.1614
▁영화	-11.1614
▁영화장르	-11.1614
▁예)	-11.1614
▁예시로	-11.1614
▁예정	-11.1614
▁예제에서	-11.1614
▁오류"");	-11.1614
▁오직	-11.1614
▁오질	-11.1614
▁올려서	-11.1614
▁올릴	-11.1614
▁옮기고	-11.1614
▁옵션	-11.1614
▁완료했습니다.	-11.1614
▁외에도	-11.1614
▁요청하는	-11.1614
▁울리게	-11.1614
▁움직이게	-11.1614
▁원	-11.1614
▁원소들의	-11.1614
▁원이	-11.1614
▁원인이	-11.1614
▁월	-11.1614
▁웹사이트의	-11.1614
▁위반이	-11.1614
▁위에서	-11.1614
▁위와같은	-11.1614
▁위치한	-11.1614
▁윈도우를	-11.1614
▁유저	-11.1614
▁유저의	-11.1614
▁유튜브	-11.1614
▁음력	-11.1614
▁음수가	-11.1614
▁응답을	-11.1614
▁응용	-11.1614
▁의미	-11.1614
▁의미는	-11.1614
▁의미로	-11.1614
▁의미의	-11.1614
▁이것보다	-11.1614
▁이고	-11.1614
▁이동을	-11.1614
▁이때,	-11.1614
▁이란	-11.1614
▁이런거	-11.1614
▁이런걸	-11.1614
▁이루어	-11.1614
▁이름만	-11.1614
▁이름에	-11.1614
▁이리	-11.1614
▁이미지만	-11.1614
▁이벤트는	-11.1614
▁이와같은	-11.1614
▁이외의	-11.1614
▁이용	-11.1614
▁이용해야	-11.1614
▁이유도	-11.1614
▁이유로	-11.1614
▁이쪽	-11.1614
▁이해도가	-11.1614
▁이해하기	-11.1614
▁이해하면	-11.1614
▁이해할	-11.1614
▁인데,	-11.1614
▁인데요	-11.1614
▁인식을	-11.1614
▁인원	-11.1614
▁인코딩을	-11.1614
▁인터넷을	-11.1614
▁인터페이스	-11.1614
▁인터페이스의	-11.1614
▁인풋	-11.1614
▁일부러	-11.1614
▁일부만	-11.1614
▁일주일	-11.1614
▁읽어들여	-11.1614
▁읽어오고	-11.1614
▁임시	-11.1614
▁임시객체가	-11.1614
▁임시저장	-11.1614
▁입니다."");	-11.1614
▁입력되는	-11.1614
▁입력되면	-11.1614
▁입력사항]"",	-11.1614
▁입력으로	-11.1614
▁입력하면,	-11.1614
▁입력하여	-11.1614
▁입력해도	-11.1614
▁입력해주세요	-11.1614
▁입력했을때	-11.1614
▁입문	-11.1614
▁있기	-11.1614
▁있나요?",1	-11.1614
▁있나요?",4	-11.1614
▁있나요??",5	-11.1614
▁있네요.	-11.1614
▁있는거	-11.1614
▁있는게	-11.1614
▁있는지..	-11.1614
▁있다	-11.1614
▁있습니다.,"```	-11.1614
▁있었는데,	-11.1614
▁있으며,	-11.1614
▁있으면,	-11.1614
▁있을까요?,"	-11.1614
▁있음	-11.1614
▁있잖아요.	-11.1614
▁자료	-11.1614
▁자료구조를	-11.1614
▁자리에	-11.1614
▁자바에서는	-11.1614
▁자신이	-11.1614
▁자체는	-11.1614
▁작동하는	-11.1614
▁작성되어	-11.1614
▁작성하시오.	-11.1614
▁작성하였는데	-11.1614
▁작성한다.	-11.1614
▁작업은	-11.1614
▁잔고	-11.1614
▁잘되는데	-11.1614
▁잘못됐는지	-11.1614
▁잠깐	-11.1614
▁장의	-11.1614
▁장점을	-11.1614
▁저건	-11.1614
▁저걸	-11.1614
▁저장하기	-11.1614
▁저장하려면	-11.1614
▁저장한다.	-11.1614
▁적	-11.1614
▁적어놓은	-11.1614
▁적용된	-11.1614
▁적용해서	-11.1614
▁전달받은	-11.1614
▁전달인자:	-11.1614
▁전송이	-11.1614
▁전역변수는	-11.1614
▁전역변수를	-11.1614
▁전의	-11.1614
▁접근하여	-11.1614
▁정렬한다.	-11.1614
▁정렬해서	-11.1614
▁정보만	-11.1614
▁정수:	-11.1614
▁정의할때	-11.1614
▁정점	-11.1614
▁제거한	-11.1614
▁제대로된	-11.1614
▁제작	-11.1614
▁제한	-11.1614
▁존재하면	-11.1614
▁존재할	-11.1614
▁종료하고	-11.1614
▁종료하기|"");	-11.1614
▁종료하는	-11.1614
▁종료합니다.	-11.1614
▁좋게	-11.1614
▁좋겠는데	-11.1614
▁주석처리된	-11.1614
▁주셔서	-11.1614
▁주소값이	-11.1614
▁주소로	-11.1614
▁주어졌을	-11.1614
▁줄바꿈	-11.1614
▁줄씩	-11.1614
▁줄여	-11.1614
▁중심	-11.1614
▁중인데,	-11.1614
▁증가시키고	-11.1614
▁증가하는	-11.1614
▁지역변수	-11.1614
▁지우면	-11.1614
▁지울	-11.1614
▁지원하는	-11.1614
▁지적	-11.1614
▁지정되지	-11.1614
▁지정할	-11.1614
▁지지	-11.1614
▁진행하는	-11.1614
▁질문,"안녕하세요	-11.1614
▁질문과	-11.1614
▁질문에서	-11.1614
▁질문입니다!,"```	-11.1614
▁질문합니다.,"```	-11.1614
▁짜	-11.1614
▁짜야하는지	-11.1614
▁짰는데,	-11.1614
▁찍는	-11.1614
▁차이	-11.1614
▁차트	-11.1614
▁참고해서	-11.1614
▁창	-11.1614
▁찾기가	-11.1614
▁찾아야	-11.1614
▁찾을수가	-11.1614
▁채팅이	-11.1614
▁책에서는	-11.1614
▁처리된	-11.1614
▁처리한	-11.1614
▁첨부합니다.	-11.1614
▁초보자	-11.1614
▁총점	-11.1614
▁최종적으로	-11.1614
▁추가하기-->	-11.1614
▁추가한	-11.1614
▁추출한	-11.1614
▁출력되는데	-11.1614
▁충돌	-11.1614
▁치면	-11.1614
▁카카오톡	-11.1614
▁컨트롤	-11.1614
▁컬럼을	-11.1614
▁컴파일도	-11.1614
▁컴파일되는	-11.1614
▁컴퓨터로	-11.1614
▁케이스의	-11.1614
▁코드들이	-11.1614
▁코드이고	-11.1614
▁코드인데요	-11.1614
▁코드중	-11.1614
▁코딩이	-11.1614
▁코딩한	-11.1614
▁콘솔	-11.1614
▁콘솔로	-11.1614
▁콘솔창에	-11.1614
▁콜백이	-11.1614
▁콤마로	-11.1614
▁쿼리로	-11.1614
▁크기로	-11.1614
▁크기에	-11.1614
▁클라이언트에	-11.1614
▁클로저라고	-11.1614
▁클릭하는	-11.1614
▁클릭할	-11.1614
▁탐색	-11.1614
▁탐색을	-11.1614
▁태그로	-11.1614
▁탭에	-11.1614
▁탭으로	-11.1614
▁테마를	-11.1614
▁테이블에는	-11.1614
▁텍스쳐	-11.1614
▁텐서플로우	-11.1614
▁템플릿으로	-11.1614
▁통과"")	-11.1614
▁튜플로	-11.1614
▁튜플을	-11.1614
▁트리의	-11.1614
▁파라미터를	-11.1614
▁파싱한	-11.1614
▁파일로부터	-11.1614
▁판단	-11.1614
▁판단하는	-11.1614
▁패스워드를	-11.1614
▁페이스북	-11.1614
▁평점	-11.1614
▁포인터에	-11.1614
▁폴더로	-11.1614
▁폴더의	-11.1614
▁표시되고	-11.1614
▁표시하는	-11.1614
▁표시할	-11.1614
▁표현을	-11.1614
▁표현하면	-11.1614
▁풀다가	-11.1614
▁풀리지	-11.1614
▁프레임워크	-11.1614
▁프레임워크를	-11.1614
▁프로그램으로	-11.1614
▁프로시저	-11.1614
▁프로토타입	-11.1614
▁프로퍼티	-11.1614
▁프로퍼티에	-11.1614
▁프록시	-11.1614
▁필수	-11.1614
▁필요로	-11.1614
▁필요한데	-11.1614
▁하고있는데	-11.1614
▁하나라도	-11.1614
▁하나요?,"	-11.1614
▁하는것	-11.1614
▁하는것이	-11.1614
▁하며	-11.1614
▁하였는데,	-11.1614
▁한다고	-11.1614
▁할까요?",3	-11.1614
▁할당된	-11.1614
▁할수있을까요?	-11.1614
▁함.	-11.1614
▁함수.	-11.1614
▁함수들을	-11.1614
▁함수들이	-11.1614
▁합니다.**	-11.1614
▁해결하기	-11.1614
▁해놓고	-11.1614
▁해당되는	-11.1614
▁해석을	-11.1614
▁해시태그를	-11.1614
▁해야하나요?",5	-11.1614
▁해야하죠?	-11.1614
▁해야하죠?,"	-11.1614
▁해야할까요	-11.1614
▁해주어야	-11.1614
▁핸들	-11.1614
▁핸들러	-11.1614
▁행에	-11.1614
▁행이	-11.1614
▁허용	-11.1614
▁형변환을	-11.1614
▁형식을	-11.1614
▁호출되는	-11.1614
▁호출되지	-11.1614
▁호출하고	-11.1614
▁호출해서	-11.1614
▁화면입니다.	-11.1614
▁확인하려면	-11.1614
▁확인한	-11.1614
▁확인했는데	-11.1614
▁환경	-11.1614
▁환경변수	-11.1614
▁환경을	-11.1614
▁활용하면	-11.1614
▁활용한	-11.1614
▁회원관리	-11.1614
▁회원이	-11.1614
▁효율적으로	-11.1614
▁힌트라도	-11.1614
▁힙	-11.1614
▁!important;	-11.4491
▁""""){	-11.4491
▁""#filter.size	-11.4491
▁""$$$""	-11.4491
▁""%""	-11.4491
▁""("":	-11.4491
▁"")#	-11.4491
▁"")))	-11.4491
▁""+_data.gamecode+""	-11.4491
▁""+_data.iCSN+""	-11.4491
▁""+_data.server);	-11.4491
▁""+match.getNameB()+""	-11.4491
▁""+match.getScoreA()+"",	-11.4491
▁""+match.getScoreB()+"";	-11.4491
▁"".75""	-11.4491
▁""/"",	-11.4491
▁""/solution.$$$"",	-11.4491
▁""1"");	-11.4491
▁""2018-01-23	-11.4491
▁""2019-08-01	-11.4491
▁""3"",	-11.4491
▁""<\\/"")}	-11.4491
▁""<stdin>"",	-11.4491
▁""="":	-11.4491
▁"">	-11.4491
▁""A""],	-11.4491
▁""C:\$$$\lib\urllib\request.$$$"",	-11.4491
▁""C:\Anaconda3\lib\site-packages\pandas\core\indexes\base.py"",	-11.4491
▁""C:\Program	-11.4491
▁""C:\\Program	-11.4491
▁""Check	-11.4491
▁""Hello	-11.4491
▁""JAVAJO.AFTERINSERTMOVIESCORE"",	-11.4491
▁""K:\파이썬\완성\터틀	-11.4491
▁""No	-11.4491
▁""_id""	-11.4491
▁""application/json"");	-11.4491
▁""b"":	-11.4491
▁""color"":2	-11.4491
▁""configuration""을(를)	-11.4491
▁""contact"":	-11.4491
▁""created_time"":	-11.4491
▁""customer"":	-11.4491
▁""data1"";	-11.4491
▁""data2"";	-11.4491
▁""date"":""2016/10/13"",	-11.4491
▁""date"":""2016/10/17"",	-11.4491
▁""def"",	-11.4491
▁""iCSN""	-11.4491
▁""insertPromote:	-11.4491
▁""item"",	-11.4491
▁""jpg"",	-11.4491
▁""link"":	-11.4491
▁""method"":	-11.4491
▁""minigame.py"",	-11.4491
▁""model"":""SMT-C5010"",	-11.4491
▁""num_angrys"":	-11.4491
▁""num_comments"":	-11.4491
▁""num_hahas"":	-11.4491
▁""num_likes"":	-11.4491
▁""num_loves"":	-11.4491
▁""num_reactions"":	-11.4491
▁""num_sads"":	-11.4491
▁""num_shares"":	-11.4491
▁""num_wows"":	-11.4491
▁""phone"":	-11.4491
▁""post"",	-11.4491
▁""r"")	-11.4491
▁""remarks"":	-11.4491
▁""server""	-11.4491
▁""type"":	-11.4491
▁""ws2_32"")	-11.4491
▁""이	-11.4491
▁""입니다."");	-11.4491
▁""파일	-11.4491
▁####에러내용	-11.4491
▁####에러메세지	-11.4491
▁###소스코드1	-11.4491
▁###소스코드2	-11.4491
▁###에러메세지	-11.4491
▁###에러메시지(있는	-11.4491
▁#1	-11.4491
▁#3	-11.4491
▁#cardTable	-11.4491
▁#handler	-11.4491
▁#include<iostream>	-11.4491
▁#include<string.h>	-11.4491
▁#계산	-11.4491
▁#어떤	-11.4491
▁#유저	-11.4491
▁#이	-11.4491
▁$$$.contrib	-11.4491
▁$$$.db	-11.4491
▁$$$.io.InputStreamReader;	-11.4491
▁$$$.net.*;	-11.4491
▁$$$.util.NoSuchElementException	-11.4491
▁$$$.util.StringTokenizer;	-11.4491
▁$$$.utils	-11.4491
▁$$$2.7	-11.4491
▁$$$3	-11.4491
▁$(	-11.4491
▁$(""#menulist"").html(""<label	-11.4491
▁$(""#table"").html(""<table	-11.4491
▁$("".main_visual	-11.4491
▁$(""<span/>"");	-11.4491
▁$('#pageTab	-11.4491
▁$('#score').text(score);	-11.4491
▁$('.mainBlock	-11.4491
▁$(document).on('click',	-11.4491
▁$(this).val();	-11.4491
▁$(this);	-11.4491
▁$(window).width()	-11.4491
▁$gall	-11.4491
▁%.1f	-11.4491
▁%=	-11.4491
▁%></td>	-11.4491
▁%d\n"",*start_nap_h,	-11.4491
▁%d\n"",tmp_h,	-11.4491
▁%s\n"",buffer);	-11.4491
▁%x	-11.4491
▁&&l_bare,	-11.4491
▁&a,	-11.4491
▁&b);	-11.4491
▁&b,	-11.4491
▁&c,	-11.4491
▁&data,	-11.4491
▁&key,	-11.4491
▁&place);	-11.4491
▁&wsa)	-11.4491
▁&y);	-11.4491
▁'#'	-11.4491
▁'(')	-11.4491
▁'));	-11.4491
▁'*'	-11.4491
▁'*',	-11.4491
▁'+	-11.4491
▁'-'	-11.4491
▁'---',	-11.4491
▁'-I',	-11.4491
▁'.')	-11.4491
▁'...'	-11.4491
▁'0';	-11.4491
▁'0.629504564',	-11.4491
▁'1'	-11.4491
▁'11931'},	-11.4491
▁'167',	-11.4491
▁'3',	-11.4491
▁'357',	-11.4491
▁'43249',	-11.4491
▁'6001',	-11.4491
▁'7':	-11.4491
▁'7022',	-11.4491
▁'8':	-11.4491
▁'9':	-11.4491
▁':	-11.4491
▁'@')	-11.4491
▁'Arts',	-11.4491
▁'CASCADE',	-11.4491
▁'D	-11.4491
▁'DRAMA	-11.4491
▁'GEN',	-11.4491
▁'JAVAJO.AFTERINSERTMOVIESCORE'	-11.4491
▁'L'),	-11.4491
▁'M'),	-11.4491
▁'Major_category':	-11.4491
▁'Major_code':	-11.4491
▁'Men':	-11.4491
▁'Nagative':	-11.4491
▁'O')	-11.4491
▁'POST',	-11.4491
▁'Q':	-11.4491
▁'Quiz	-11.4491
▁'R']""}	-11.4491
▁'Rank':	-11.4491
▁'S':	-11.4491
▁'Sample_size':	-11.4491
▁'ShareWomen':	-11.4491
▁'Total':	-11.4491
▁'U'	-11.4491
▁'Women':	-11.4491
▁'XL'),	-11.4491
▁'Y')	-11.4491
▁'\n');	-11.4491
▁'application/json',	-11.4491
▁'d',	-11.4491
▁'d']	-11.4491
▁'data/end.png'	-11.4491
▁'f',	-11.4491
▁'form-control',	-11.4491
▁'h',	-11.4491
▁'inventory_code':	-11.4491
▁'lxml')	-11.4491
▁'placeholder':	-11.4491
▁'q':	-11.4491
▁'rb')}	-11.4491
▁'refresh'	-11.4491
▁'sale1'	-11.4491
▁'sale2':	-11.4491
▁'selected');	-11.4491
▁'sqlSession'	-11.4491
▁'str'	-11.4491
▁'w')	-11.4491
▁'x')	-11.4491
▁'ᄀ',	-11.4491
▁'ᄂ',	-11.4491
▁'▼',	-11.4491
▁'메시지	-11.4491
▁'사진',	-11.4491
▁'아니',	-11.4491
▁(""	-11.4491
▁('name',	-11.4491
▁((data)	-11.4491
▁((len	-11.4491
▁(){	-11.4491
▁(/Users/hanman/Documents/workspace/prj_test/node_modules/express/lib/router/layer.js:95:5)	-11.4491
▁(0	-11.4491
▁(0)	-11.4491
▁(1,0)	-11.4491
▁(3)	-11.4491
▁(3**(1.0/2.0)	-11.4491
▁(8,video)로	-11.4491
▁(AQ->rear	-11.4491
▁(DrawerLayout)	-11.4491
▁(HTTPLog)-Static:	-11.4491
▁(Highcharts.theme	-11.4491
▁(L->head	-11.4491
▁(ListView)	-11.4491
▁(MalformedURLException	-11.4491
▁(Math.random()*10+1);	-11.4491
▁(PIE(token)))	-11.4491
▁(PersonArray*)malloc(sizeof(PeopleArray));	-11.4491
▁(T)stck[top];	-11.4491
▁(U_FAILURE(*err))	-11.4491
▁(_	-11.4491
▁(__)",2	-11.4491
▁(_year	-11.4491
▁(age	-11.4491
▁(choose	-11.4491
▁(comp	-11.4491
▁(day	-11.4491
▁(exifOrientation	-11.4491
▁(exploded):	-11.4491
▁(head	-11.4491
▁(idx	-11.4491
▁(input	-11.4491
▁(input)	-11.4491
▁(int)(Math.random()*100);	-11.4491
▁(int**)	-11.4491
▁(intervalId)	-11.4491
▁(left	-11.4491
▁(len	-11.4491
▁(level	-11.4491
▁(line[i]	-11.4491
▁(nStage	-11.4491
▁(new	-11.4491
▁(news->front	-11.4491
▁(ns[ey	-11.4491
▁(ns[y][x]	-11.4491
▁(null	-11.4491
▁(output[i][j]	-11.4491
▁(per	-11.4491
▁(pic2	-11.4491
▁(referer:	-11.4491
▁(res)	-11.4491
▁(rs.next())	-11.4491
▁(select	-11.4491
▁(temp	-11.4491
▁(true);	-11.4491
▁(uDataLen	-11.4491
▁(unsigned	-11.4491
▁(user_choice	-11.4491
▁(x,	-11.4491
▁(x2[0]-5)**2)	-11.4491
▁(x2[1]-5)**2)	-11.4491
▁(x2[2]-5)**2)	-11.4491
▁(예	-11.4491
▁(참고로	-11.4491
▁*(	-11.4491
▁*(*(a	-11.4491
▁*);	-11.4491
▁*)theStream	-11.4491
▁****0****	-11.4491
▁**2	-11.4491
▁**for(int	-11.4491
▁**kwargs):	-11.4491
▁**질문2	-11.4491
▁**질문2)	-11.4491
▁**해결	-11.4491
▁**혹시	-11.4491
▁*,	-11.4491
▁*List,	-11.4491
▁*b;	-11.4491
▁*err=U_INVALID_FORMAT_ERROR;	-11.4491
▁*head)	-11.4491
▁*head1,	-11.4491
▁*item	-11.4491
▁*leaf)	-11.4491
▁*leaf);	-11.4491
▁*link;	-11.4491
▁*max_m);*/	-11.4491
▁*news_queue;	-11.4491
▁*next;	-11.4491
▁*p2	-11.4491
▁*pstr--	-11.4491
▁*px;	-11.4491
▁*schedule);	-11.4491
▁*str1);	-11.4491
▁*str1){	-11.4491
▁*str1;	-11.4491
▁*stu,	-11.4491
▁*targetPtr	-11.4491
▁*temp1	-11.4491
▁*temp2	-11.4491
▁*를	-11.4491
▁+'	-11.4491
▁++i,	-11.4491
▁+--------+--------------+------+-----+---------+----------------+	-11.4491
▁+-----------+-------------+-------------+--------------+	-11.4491
▁+1;	-11.4491
▁----	-11.4491
▁------	-11.4491
▁---------	-11.4491
▁-0.99777778,	-11.4491
▁-1);	-11.4491
▁-1*/	-11.4491
▁-14	-11.4491
▁-18	-11.4491
▁-1이	-11.4491
▁-21	-11.4491
▁-34	-11.4491
▁-38	-11.4491
▁-42	-11.4491
▁-5120	-11.4491
▁-54	-11.4491
▁-56	-11.4491
▁-58	-11.4491
▁-99	-11.4491
▁-cp	-11.4491
▁-f	-11.4491
▁-o	-11.4491
▁..?	-11.4491
▁.2s	-11.4491
▁.4em;""/>	-11.4491
▁.NET	-11.4491
▁.addGroup(javax.swing.GroupLayout.Alignment.TRAILING,	-11.4491
▁.addGroup(layout.createParallelGroup(javax.swing.GroupLayout.Alignment.BASELINE)	-11.4491
▁.build();	-11.4491
▁.content	-11.4491
▁.create();	-11.4491
▁.dat	-11.4491
▁.exe	-11.4491
▁.fileBox	-11.4491
▁.h	-11.4491
▁.js	-11.4491
▁.load()	-11.4491
▁.models	-11.4491
▁.on('error',	-11.4491
▁.pipe(fw)	-11.4491
▁.setPositiveButton(""확인"",	-11.4491
▁/**/	-11.4491
▁/*PeopleArray->total_waiting_people--;	-11.4491
▁/*printf(""in	-11.4491
▁//...	-11.4491
▁////	-11.4491
▁//125	-11.4491
▁//4.	-11.4491
▁//<	-11.4491
▁//ContentFidelity	-11.4491
▁//DoSomething	-11.4491
▁//If	-11.4491
▁//Log.d(""juho"",	-11.4491
▁//Send	-11.4491
▁//Set	-11.4491
▁//System.out.println(""컨트롤러에서	-11.4491
▁//TODO:	-11.4491
▁//c	-11.4491
▁//console.log(result);	-11.4491
▁//cout	-11.4491
▁//get	-11.4491
▁//jun	-11.4491
▁//make	-11.4491
▁//return	-11.4491
▁//start	-11.4491
▁//std::cout<<(p3->name_)<<std::endl;	-11.4491
▁//taking	-11.4491
▁//use	-11.4491
▁//{	-11.4491
▁//같은	-11.4491
▁//괄호	-11.4491
▁//대기인수	-11.4491
▁//부모	-11.4491
▁//이	-11.4491
▁//자식클래스는	-11.4491
▁//전체	-11.4491
▁//첫	-11.4491
▁//출력	-11.4491
▁//파이어베이스	-11.4491
▁/></td>	-11.4491
▁/로	-11.4491
▁0.	-11.4491
▁0.1	-11.4491
▁0.1195	-11.4491
▁0.3	-11.4491
▁0.4	-11.4491
▁0022FF00	-11.4491
▁00:44:16.327	-11.4491
▁00:44:16.351	-11.4491
▁00:44:16.353	-11.4491
▁09:01:31.218	-11.4491
▁0x00;	-11.4491
▁0x103dc6588>	-11.4491
▁0xb9	-11.4491
▁0번	-11.4491
▁0이라는	-11.4491
▁1,000만원	-11.4491
▁1,100만원	-11.4491
▁1.0	-11.4491
▁1.3,	-11.4491
▁1000,	-11.4491
▁100000007	-11.4491
▁1000시간	-11.4491
▁101	-11.4491
▁10113만큼	-11.4491
▁10172-10187/com.example.cracking.problemeditor	-11.4491
▁104분	-11.4491
▁10개	-11.4491
▁10개로	-11.4491
▁10까지	-11.4491
▁10으로	-11.4491
▁10의	-11.4491
▁10이	-11.4491
▁1111	-11.4491
▁119분	-11.4491
▁11:	-11.4491
▁11:57:50	-11.4491
▁12-28	-11.4491
▁12]	-11.4491
▁130,	-11.4491
▁14,	-11.4491
▁15,	-11.4491
▁150	-11.4491
▁150);	-11.4491
▁150px;	-11.4491
▁15389-15897/com.oh_biz.oh_works	-11.4491
▁16))	-11.4491
▁16,	-11.4491
▁160,	-11.4491
▁190,	-11.4491
▁1>c:\users\samsung\documents\visual	-11.4491
▁1}]	-11.4491
▁1번이	-11.4491
▁1번째	-11.4491
▁1은	-11.4491
▁1이면	-11.4491
▁1차	-11.4491
▁1차원	-11.4491
▁1초	-11.4491
▁1초에	-11.4491
▁1초정도	-11.4491
▁1행	-11.4491
▁2),	-11.4491
▁2):	-11.4491
▁2,terry,30	-11.4491
▁2.0,	-11.4491
▁20);	-11.4491
▁200);	-11.4491
▁2000);	-11.4491
▁2009:	-11.4491
▁2018-10-09	-11.4491
▁21:36:46	-11.4491
▁21;	-11.4491
▁24,	-11.4491
▁25,	-11.4491
▁25;	-11.4491
▁26	-11.4491
▁280,	-11.4491
▁28;	-11.4491
▁29	-11.4491
▁29;	-11.4491
▁2]);	-11.4491
▁2개가	-11.4491
▁2번은	-11.4491
▁2에서	-11.4491
▁3));	-11.4491
▁3.6	-11.4491
▁300);	-11.4491
▁300,	-11.4491
▁310,	-11.4491
▁338에	-11.4491
▁33;	-11.4491
▁34);	-11.4491
▁36	-11.4491
▁370,	-11.4491
▁38;	-11.4491
▁3>	-11.4491
▁3D	-11.4491
▁3rd	-11.4491
▁3가지	-11.4491
▁3과	-11.4491
▁3을	-11.4491
▁3일동안	-11.4491
▁4):	-11.4491
▁4*4	-11.4491
▁4096으로	-11.4491
▁41,	-11.4491
▁44,	-11.4491
▁45;	-11.4491
▁47	-11.4491
▁4]를	-11.4491
▁4개	-11.4491
▁4개를	-11.4491
▁4번	-11.4491
▁500,000	-11.4491
▁57)	-11.4491
▁58	-11.4491
▁5;i++)	-11.4491
▁5[a]	-11.4491
▁5]],	-11.4491
▁5를	-11.4491
▁5분	-11.4491
▁62	-11.4491
▁647	-11.4491
▁66	-11.4491
▁66.00	-11.4491
▁660	-11.4491
▁68,	-11.4491
▁685	-11.4491
▁6]])	-11.4491
▁6번째	-11.4491
▁6보다	-11.4491
▁6월	-11.4491
▁6을	-11.4491
▁70);	-11.4491
▁728px;	-11.4491
▁72;	-11.4491
▁745	-11.4491
▁750	-11.4491
▁770	-11.4491
▁8),	-11.4491
▁8.	-11.4491
▁800px;	-11.4491
▁800만원	-11.4491
▁85,	-11.4491
▁87	-11.4491
▁87,	-11.4491
▁9)	-11.4491
▁9);	-11.4491
▁90	-11.4491
▁90,	-11.4491
▁900)	-11.4491
▁9000	-11.4491
▁90;	-11.4491
▁99)	-11.4491
▁99;	-11.4491
▁9;	-11.4491
▁9]	-11.4491
▁9개	-11.4491
▁:)",4	-11.4491
▁<![endif]-->	-11.4491
▁<%}	-11.4491
▁<---	-11.4491
▁</BUTTON>	-11.4491
▁</c:forEach>	-11.4491
▁</div>,	-11.4491
▁</header>	-11.4491
▁</label>	-11.4491
▁<0	-11.4491
▁<?	-11.4491
▁<?php	-11.4491
▁<BUTTON	-11.4491
▁<Button	-11.4491
▁<br/>	-11.4491
▁<c:forEach	-11.4491
▁<context:component-scan	-11.4491
▁<div><a	-11.4491
▁<fcntl.h>	-11.4491
▁<groupId>org.slf4j</groupId>	-11.4491
▁<header>	-11.4491
▁<list>	-11.4491
▁<p	-11.4491
▁<p>	-11.4491
▁<scope>runtime</scope>	-11.4491
▁<textarea	-11.4491
▁<unistd.h>	-11.4491
▁<version>${org.slf4j-version}</version>	-11.4491
▁<video	-11.4491
▁<winsock2.h>	-11.4491
▁=0	-11.4491
▁=0;i	-11.4491
▁==0:	-11.4491
▁==True].iterrows():	-11.4491
▁=[]	-11.4491
▁>>1)	-11.4491
▁>>2)	-11.4491
▁>>3)	-11.4491
▁>>4)	-11.4491
▁>>5)	-11.4491
▁>>6)	-11.4491
▁>`	-11.4491
▁?",2	-11.4491
▁?",3	-11.4491
▁?,"```	-11.4491
▁???	-11.4491
▁@Controller	-11.4491
▁@NonNull	-11.4491
▁@RequestMapping	-11.4491
▁@Transactional	-11.4491
▁@Transactional(isolation=Isolation.READ_COMMITTED,	-11.4491
▁A.top()	-11.4491
▁A;	-11.4491
▁AF_INET;	-11.4491
▁ALL*	-11.4491
▁AM',	-11.4491
▁API.	-11.4491
▁API에서	-11.4491
▁ARTS',	-11.4491
▁ASC"";	-11.4491
▁AWS	-11.4491
▁AWT를	-11.4491
▁Access	-11.4491
▁ActionForward	-11.4491
▁ActionListener{	-11.4491
▁ActiveXObject(""Microsoft.XMLDOM"");	-11.4491
▁Activity{	-11.4491
▁AlertDialog.Builder(MainActivity.this);	-11.4491
▁AlertDialog.Builder(RegisterActivity.this);	-11.4491
▁All	-11.4491
▁And	-11.4491
▁Animal(name,	-11.4491
▁Animal*	-11.4491
▁AppFragments	-11.4491
▁ApplicationContext	-11.4491
▁ArrayList<Bbs>	-11.4491
▁ArrayList<RecipeDTO>	-11.4491
▁ArrayList<String>(n);	-11.4491
▁ArrayList<YoutubeDataModel>	-11.4491
▁ArrayList<tools_item2>	-11.4491
▁ArrayList에	-11.4491
▁ArrayUtilsTester	-11.4491
▁Attempt	-11.4491
▁A에서	-11.4491
▁B',	-11.4491
▁B();	-11.4491
▁B,	-11.4491
▁B.pop();	-11.4491
▁B.top()	-11.4491
▁BETWEEN	-11.4491
▁BMI	-11.4491
▁BM_SETCHECK,	-11.4491
▁BUFSIZE	-11.4491
▁BUFSIZE,	-11.4491
▁BetResult(int	-11.4491
▁Blog	-11.4491
▁BluetoothDevice>	-11.4491
▁Book"";	-11.4491
▁Books	-11.4491
▁BorderLayout());	-11.4491
▁BufferedInputStream	-11.4491
▁BufferedWriter(new	-11.4491
▁Bullet[i].y);	-11.4491
▁Bus(String	-11.4491
▁ButtonGroup	-11.4491
▁ButtonGroup();	-11.4491
▁B가	-11.4491
▁C,	-11.4491
▁C:\dev\mall\mall-back\node_modules\bcrypt	-11.4491
▁C:\dev\mall\mall-back\node_modules\bcrypt>if	-11.4491
▁C;	-11.4491
▁CAPACITY	-11.4491
▁CHAT_MSG	-11.4491
▁CLR	-11.4491
▁COMPLETE	-11.4491
▁CSS	-11.4491
▁Caffeine	-11.4491
▁Caffeine-1.0.0.war	-11.4491
▁Car.Car@15db9742	-11.4491
▁Category	-11.4491
▁Cell의	-11.4491
▁Child();	-11.4491
▁Child1	-11.4491
▁Class.forName(""com.mysql.jdbc.Driver"");	-11.4491
▁Code	-11.4491
▁Comparand.Int[0]	-11.4491
▁ConnectionToServer	-11.4491
▁ContentFidelity;	-11.4491
▁ContentService	-11.4491
▁ContentValues	-11.4491
▁Context:	-11.4491
▁Copy	-11.4491
▁CreateThread(NULL,	-11.4491
▁Created	-11.4491
▁Current	-11.4491
▁C에서는	-11.4491
▁DB를	-11.4491
▁DELAY	-11.4491
▁DESC	-11.4491
▁DLL로	-11.4491
▁DOM	-11.4491
▁DOWN	-11.4491
▁DOWN:	-11.4491
▁DRAWLINE_MSG	-11.4491
▁DataFrame을	-11.4491
▁DataType	-11.4491
▁Date();	-11.4491
▁Day	-11.4491
▁Debug	-11.4491
▁Delete	-11.4491
▁DoubleStack	-11.4491
▁DoubleStack.push(temp);	-11.4491
▁Drawer	-11.4491
▁DrawerLayout	-11.4491
▁DriverManager.getConnection(url,	-11.4491
▁Dto	-11.4491
▁Elem>	-11.4491
▁EntityManager	-11.4491
▁Evaluation(String	-11.4491
▁Evaluation(postFix);	-11.4491
▁Exception,	-11.4491
▁Exception;	-11.4491
▁F	-11.4491
▁FSTREAM	-11.4491
▁FavoritesAdapter	-11.4491
▁FileWriter	-11.4491
▁Files\nodejs\node_modules\npm\bin\node-gyp-bin\\..\..\node_modules\node-gyp\bin\node-gyp.js""	-11.4491
▁Floating	-11.4491
▁ForwardIterator	-11.4491
▁Frame(frm_mid)	-11.4491
▁FruitSeller	-11.4491
▁FuncPtr(int	-11.4491
▁G	-11.4491
▁GPIO	-11.4491
▁GPIO.OUT)	-11.4491
▁GPIO.setmode(GPIO.BCM)	-11.4491
▁GStack<Double>();	-11.4491
▁GStack<String>	-11.4491
▁GStack<String>();	-11.4491
▁Grunt	-11.4491
▁HANDLE	-11.4491
▁HashMap을	-11.4491
▁Head;	-11.4491
▁HeightLine();	-11.4491
▁Host	-11.4491
▁However,	-11.4491
▁HttpServletRequest	-11.4491
▁I/System.out:	-11.4491
▁ID:	-11.4491
▁ID값	-11.4491
▁INFINITE);	-11.4491
▁INFO:	-11.4491
▁INT,	-11.4491
▁INT_MAX;	-11.4491
▁INVALID_SOCKET)	-11.4491
▁IOException{	-11.4491
▁IOS인지	-11.4491
▁Illegal	-11.4491
▁Image,	-11.4491
▁InetAddress	-11.4491
▁Inflate	-11.4491
▁Ingredient	-11.4491
▁Input""	-11.4491
▁InputStream,	-11.4491
▁InputStreamReader	-11.4491
▁Integer(0);	-11.4491
▁Intel	-11.4491
▁Intent(getActivity(),	-11.4491
▁Intent(getApplicationContext(),	-11.4491
▁Interface	-11.4491
▁Interpace::BetResult(int	-11.4491
▁IntoPost(StringTokenizer	-11.4491
▁IntoPost(st);	-11.4491
▁Invalid	-11.4491
▁It's	-11.4491
▁Item(int	-11.4491
▁JAR	-11.4491
▁JAVAJO.MOVIESCORE	-11.4491
▁JList<String>	-11.4491
▁JNDI	-11.4491
▁JSON.stringify(stickiesArray));	-11.4491
▁JSP	-11.4491
▁JTextArea	-11.4491
▁JTextField(8);	-11.4491
▁Java	-11.4491
▁Jun	-11.4491
▁K	-11.4491
▁L""string	-11.4491
▁L;	-11.4491
▁LEFT:	-11.4491
▁LIMIT	-11.4491
▁LIST	-11.4491
▁LOW)	-11.4491
▁Label(frm_mid2,	-11.4491
▁LabeledTextField	-11.4491
▁Layer.handle	-11.4491
▁Line();	-11.4491
▁Linked	-11.4491
▁LinkedList	-11.4491
▁Linux	-11.4491
▁List<Integer>	-11.4491
▁List를	-11.4491
▁List의	-11.4491
▁Log	-11.4491
▁M;	-11.4491
▁MAXENEMY;	-11.4491
▁MB_ICONERROR);	-11.4491
▁MEMBER	-11.4491
▁MFC	-11.4491
▁MVC	-11.4491
▁MainActivity를	-11.4491
▁MainActivity에서	-11.4491
▁Major_code,	-11.4491
▁Map.Entry	-11.4491
▁Marker	-11.4491
▁Marker();	-11.4491
▁Matrix();	-11.4491
▁MemberVO	-11.4491
▁Menu	-11.4491
▁ModuleNotFoundError:	-11.4491
▁MouseAdapter()	-11.4491
▁Multiple	-11.4491
▁MyActionListener	-11.4491
▁MyClass&	-11.4491
▁MyClass(const	-11.4491
▁MyClassB<T,3>::MyClassB(){	-11.4491
▁MyClassB<int,	-11.4491
▁MyDate	-11.4491
▁MyParameterizedFunction(String	-11.4491
▁Mypath.substring(0,Mypath.lastIndexOf(""\\""));	-11.4491
▁M의	-11.4491
▁N)	-11.4491
▁NONE;	-11.4491
▁NO_CIPHERS_AVAILABLE]	-11.4491
▁NUM_LOOP	-11.4491
▁NUM_USER	-11.4491
▁NaN인지	-11.4491
▁Network	-11.4491
▁Node;	-11.4491
▁NodeJS	-11.4491
▁None으로	-11.4491
▁Nptr	-11.4491
▁N의	-11.4491
▁OR	-11.4491
▁ORA-04088:	-11.4491
▁ORA-06512:	-11.4491
▁OUTPUT)	-11.4491
▁Obj	-11.4491
▁ObjectOutputStream	-11.4491
▁Object[200];	-11.4491
▁Object[][]{{Color.BLUE,	-11.4491
▁Objects	-11.4491
▁OnClickListener	-11.4491
▁OnClickListener()	-11.4491
▁Open	-11.4491
▁OracleHelper에	-11.4491
▁Output	-11.4491
▁PC에	-11.4491
▁PC의	-11.4491
▁PEOPLE)	-11.4491
▁PEOPLE);	-11.4491
▁PL	-11.4491
▁PRIMARY	-11.4491
▁Panel	-11.4491
▁Parent를	-11.4491
▁Path	-11.4491
▁PeopleArray->people[i].content_score	-11.4491
▁PeopleArray->people[num].content_score	-11.4491
▁PeopleArray->people[num].receive_content++;	-11.4491
▁PeopleArray->people[num].waiting_time	-11.4491
▁PeopleArray->people[num].waiting_time;	-11.4491
▁PeopleArray->total_waiting_people	-11.4491
▁PhotoImage(file=""gif/""	-11.4491
▁Point(int	-11.4491
▁Pool	-11.4491
▁Pool()	-11.4491
▁Postfix;	-11.4491
▁Price;	-11.4491
▁PrintStream	-11.4491
▁Process.ChildProcess._handle.onexit	-11.4491
▁Push	-11.4491
▁PutMoney();	-11.4491
▁PyQt5	-11.4491
▁PyQt5.QtWidgets	-11.4491
▁QLabel(""개"",	-11.4491
▁QTY칸의	-11.4491
▁Queue;	-11.4491
▁QuickSort(arr,	-11.4491
▁RECTANGLE	-11.4491
▁RESULT_OK)	-11.4491
▁RIGHT:	-11.4491
▁RPi.GPIO	-11.4491
▁Radiobutton(frm_mid3,	-11.4491
▁Range	-11.4491
▁Range(int	-11.4491
▁Rank,	-11.4491
▁Receive	-11.4491
▁RecycleAdt.Item	-11.4491
▁RecycleAdt.Item(RecycleAdt.HEADER,	-11.4491
▁RecycleAdt.Item(RecycleAdt.MORE,	-11.4491
▁Redis	-11.4491
▁Register	-11.4491
▁Rest	-11.4491
▁Run	-11.4491
▁Runtime	-11.4491
▁SCL	-11.4491
▁SDA	-11.4491
▁SERVERPORT	-11.4491
▁SEVERE	-11.4491
▁SIZE_QUEUE	-11.4491
▁SOCKET_ERROR	-11.4491
▁SSH	-11.4491
▁STS	-11.4491
▁Scan	-11.4491
▁ScheduledExecutorService	-11.4491
▁Search	-11.4491
▁SelectObject(hDCMem,	-11.4491
▁ServerSocket	-11.4491
▁SetColor(RED);	-11.4491
▁SetDlgItemText(hDlg,	-11.4491
▁Set을	-11.4491
▁SimpleDateFormat	-11.4491
▁Socket(""127.0.0.1"",	-11.4491
▁Some	-11.4491
▁SoundPool.load(context,	-11.4491
▁Specialization	-11.4491
▁StringBuilder를	-11.4491
▁Studio	-11.4491
▁Sum	-11.4491
▁Synchronized	-11.4491
▁System	-11.4491
▁System.out.print(""Please	-11.4491
▁System.out.print(match.getNameA()+""	-11.4491
▁System.out.print(stringStack.pop()+""	-11.4491
▁System.out.println(""Connection	-11.4491
▁System.out.println(""The	-11.4491
▁System.out.println(""enter	-11.4491
▁System.out.println(""과일	-11.4491
▁System.out.println(""당신의	-11.4491
▁System.out.println((int)Math.random()	-11.4491
▁System.out.println(num);	-11.4491
▁TEST	-11.4491
▁THEATER	-11.4491
▁TRUE);	-11.4491
▁Test"");	-11.4491
▁Test()	-11.4491
▁Test(int	-11.4491
▁Test;	-11.4491
▁Thread(){	-11.4491
▁Thread를	-11.4491
▁Throwable	-11.4491
▁Timer	-11.4491
▁To	-11.4491
▁Toast.makeText(getActivity(),	-11.4491
▁TreeSet에서	-11.4491
▁Triangle	-11.4491
▁True,	-11.4491
▁TypeError가	-11.4491
▁UINT	-11.4491
▁UP:	-11.4491
▁URL,	-11.4491
▁USER_TABLE_COLUMN_NAME	-11.4491
▁USER_TYPE	-11.4491
▁Unfortunately	-11.4491
▁Uri로	-11.4491
▁User.findOne({email	-11.4491
▁ValueError	-11.4491
▁Video,	-11.4491
▁View.OnClickListener	-11.4491
▁ViewHolder();	-11.4491
▁WKT	-11.4491
▁WSACleanup();	-11.4491
▁WSADATA	-11.4491
▁WeChat	-11.4491
▁Web	-11.4491
▁X,	-11.4491
▁X;	-11.4491
▁XMLHttpRequest();	-11.4491
▁XS	-11.4491
▁XSIZE,	-11.4491
▁XXX)</option>	-11.4491
▁ZNN.com	-11.4491
▁[%s:%d]."",	-11.4491
▁['hong',	-11.4491
▁[(1,	-11.4491
▁[1,2,3,4]	-11.4491
▁[16];	-11.4491
▁[2019-07-31	-11.4491
▁[21,	-11.4491
▁[4,5,6]	-11.4491
▁[4,5,6],	-11.4491
▁[False,	-11.4491
▁[[21,	-11.4491
▁[[4,	-11.4491
▁[[7,	-11.4491
▁[as	-11.4491
▁[inputStream	-11.4491
▁[node.js]	-11.4491
▁[outputStream	-11.4491
▁[type=checkbox]:checked	-11.4491
▁[type=radio]:checked	-11.4491
▁[설정]>[권한}으로	-11.4491
▁\n"";	-11.4491
▁\n')	-11.4491
▁\t	-11.4491
▁\t부서명	-11.4491
▁\t사번	-11.4491
▁\t성명	-11.4491
▁\t전화번호	-11.4491
▁]);	-11.4491
▁]`	-11.4491
▁__name__=='__main__':	-11.4491
▁__두번째__	-11.4491
▁_callback)	-11.4491
▁_id	-11.4491
▁_name);	-11.4491
▁_node	-11.4491
▁_result);	-11.4491
▁`</tr>`;	-11.4491
▁`<td><a	-11.4491
▁`<tr>`;	-11.4491
▁`@Cacheable(value	-11.4491
▁`a	-11.4491
▁`char	-11.4491
▁`const	-11.4491
▁`data`를	-11.4491
▁`for	-11.4491
▁`public	-11.4491
▁`return	-11.4491
▁`s3.upload()`의	-11.4491
▁`typedef	-11.4491
▁`while	-11.4491
▁a){	-11.4491
▁a++)	-11.4491
▁a++;	-11.4491
▁a.add(token);	-11.4491
▁a.number	-11.4491
▁a=0;	-11.4491
▁a[2]	-11.4491
▁a[5]	-11.4491
▁a_col);	-11.4491
▁aa():	-11.4491
▁aa[10];	-11.4491
▁aaa(self):	-11.4491
▁abc	-11.4491
▁accepted_pos	-11.4491
▁action2;	-11.4491
▁ad	-11.4491
▁addLastNode(L,	-11.4491
▁addr;	-11.4491
▁aircraft_height	-11.4491
▁ajax통신으로	-11.4491
▁alert(""오답.."");	-11.4491
▁alert(""정답!!"");	-11.4491
▁amount:	-11.4491
▁android.database.Cursor;	-11.4491
▁android.os.Handler;	-11.4491
▁android.view.MenuItem;	-11.4491
▁android:gravity=""center_vertical""	-11.4491
▁android:layout_centerHorizontal=""true""	-11.4491
▁android:layout_height=""wrap_content"">	-11.4491
▁android:layout_marginBottom=""2dp""	-11.4491
▁android:orientation=""vertical"">	-11.4491
▁angularjs	-11.4491
▁animation:	-11.4491
▁api_url	-11.4491
▁api로	-11.4491
▁api에서	-11.4491
▁app.get('/auth/google/callback',	-11.4491
▁app.js를	-11.4491
▁ar;	-11.4491
▁arg)	-11.4491
▁argument(s)	-11.4491
▁argument;	-11.4491
▁argv[])	-11.4491
▁arr,	-11.4491
▁arr.length;	-11.4491
▁arr1,	-11.4491
▁arr2에	-11.4491
▁arr[j	-11.4491
▁array([[	-11.4491
▁array([[-1,	-11.4491
▁array([[-1.	-11.4491
▁array.length;	-11.4491
▁array를	-11.4491
▁arry.length;	-11.4491
▁arr이라는	-11.4491
▁article	-11.4491
▁ask	-11.4491
▁assert	-11.4491
▁assignment	-11.4491
▁auth	-11.4491
▁autoIncrement:	-11.4491
▁autoincrement,	-11.4491
▁avg_score	-11.4491
▁ax	-11.4491
▁axis	-11.4491
▁a값을	-11.4491
▁a는	-11.4491
▁b()를	-11.4491
▁b))	-11.4491
▁b++)	-11.4491
▁b1;	-11.4491
▁bDrawing	-11.4491
▁babel	-11.4491
▁back	-11.4491
▁baseDate;	-11.4491
▁baseTime;	-11.4491
▁basic,	-11.4491
▁basic;	-11.4491
▁bc	-11.4491
▁bin	-11.4491
▁bind	-11.4491
▁birthday	-11.4491
▁birthday_list	-11.4491
▁bis	-11.4491
▁bitmapImage	-11.4491
▁body:	-11.4491
▁boneMapper	-11.4491
▁book""))	-11.4491
▁boolean을	-11.4491
▁bool을	-11.4491
▁border-right:	-11.4491
▁border-top:	-11.4491
▁both	-11.4491
▁bottom:	-11.4491
▁bound	-11.4491
▁box	-11.4491
▁box.getGraphics();	-11.4491
▁bp	-11.4491
▁breaker	-11.4491
▁break로	-11.4491
▁bsObj	-11.4491
▁bs_obj	-11.4491
▁btn-default""	-11.4491
▁btn-primary""	-11.4491
▁btn_click에	-11.4491
▁buffered	-11.4491
▁buildSQL	-11.4491
▁built-in	-11.4491
▁bullet	-11.4491
▁button,	-11.4491
▁buy_list	-11.4491
▁buyer_phone,	-11.4491
▁bw	-11.4491
▁bx	-11.4491
▁bxy[0]	-11.4491
▁bxy[1]	-11.4491
▁by][ex	-11.4491
▁byte[1024];	-11.4491
▁byte[]로	-11.4491
▁byte로	-11.4491
▁byte와	-11.4491
▁b의	-11.4491
▁c);	-11.4491
▁c.v.b.mapper.MemberMapper.memberInsert	-11.4491
▁c.v.boot.mapper.MemberMapper.voteInsert	-11.4491
▁c3	-11.4491
▁callBack	-11.4491
▁callBack(	-11.4491
▁callable	-11.4491
▁callback.	-11.4491
▁call을	-11.4491
▁camera	-11.4491
▁canvas	-11.4491
▁canvas;	-11.4491
▁capacity	-11.4491
▁cars[0].velocity[t]	-11.4491
▁cars[i].goalT	-11.4491
▁catch(e)	-11.4491
▁cbExample	-11.4491
▁ch)	-11.4491
▁char(5))')	-11.4491
▁char(5),	-11.4491
▁char**	-11.4491
▁char[	-11.4491
▁char[10];	-11.4491
▁char[]를	-11.4491
▁characters	-11.4491
▁charset=""UTF-8"">	-11.4491
▁charset='utf8')	-11.4491
▁charset=UTF-8"">	-11.4491
▁cin>>input;	-11.4491
▁class=""choice""><a	-11.4491
▁class=""clear"">	-11.4491
▁class=""content"">	-11.4491
▁class=""dropdown-menu""	-11.4491
▁class=""form-control"">	-11.4491
▁class=""form-group"">	-11.4491
▁class=""glyphicon	-11.4491
▁class=""nav-link	-11.4491
▁class=""navbar-nav	-11.4491
▁class=""navbar-toggler""	-11.4491
▁class=""navbar-toggler-icon""></span>	-11.4491
▁class=""org.mybatis.spring.SqlSessionFactoryBean"">	-11.4491
▁class=""org.mybatis.spring.SqlSessionTemplate""	-11.4491
▁class=""page-link""	-11.4491
▁class=""table"">	-11.4491
▁class='col-md-4'	-11.4491
▁class='col-md-4'>이름</td>""	-11.4491
▁class='search'	-11.4491
▁class를	-11.4491
▁class의	-11.4491
▁clean	-11.4491
▁clock	-11.4491
▁cluster	-11.4491
▁code)	-11.4491
▁col,	-11.4491
▁color;	-11.4491
▁color=#ff0000>""	-11.4491
▁colspan=""2""	-11.4491
▁columnNumber:	-11.4491
▁column을	-11.4491
▁com.example.cracking.dbtenc;	-11.4491
▁commands의	-11.4491
▁comment	-11.4491
▁comment(lib,	-11.4491
▁comments	-11.4491
▁commit	-11.4491
▁company	-11.4491
▁company=models.ForeignKey(Company)	-11.4491
▁compareCount++;	-11.4491
▁comparison_idx:	-11.4491
▁compile	-11.4491
▁component;	-11.4491
▁con.setRequestProperty(""Accept"",	-11.4491
▁conn.cursor()	-11.4491
▁conn.query(sql,	-11.4491
▁connected	-11.4491
▁connection.end();	-11.4491
▁connection.release();	-11.4491
▁console.log(	-11.4491
▁console.log('==pipe	-11.4491
▁console.log(color);	-11.4491
▁console.log(fin);	-11.4491
▁console.log(req.body.editname);	-11.4491
▁constraint	-11.4491
▁const는	-11.4491
▁content,	-11.4491
▁contentPane	-11.4491
▁content_num;	-11.4491
▁content_score;	-11.4491
▁context;	-11.4491
▁control.$$$에서	-11.4491
▁controller	-11.4491
▁convertView,	-11.4491
▁convertView;	-11.4491
▁coords	-11.4491
▁core	-11.4491
▁count--;	-11.4491
▁count:	-11.4491
▁cout<<""3""<<endl;	-11.4491
▁cout<<'\t'<<""1등:	-11.4491
▁cout<<'\t'<<""2등:	-11.4491
▁cout<<'\t'<<""당신의	-11.4491
▁cp1_end);	-11.4491
▁cp2	-11.4491
▁cpn_num	-11.4491
▁cpp	-11.4491
▁crashed	-11.4491
▁create(add_num),	-11.4491
▁createLinkedList_h();	-11.4491
▁created	-11.4491
▁csrf	-11.4491
▁css를	-11.4491
▁css와	-11.4491
▁csv파일을	-11.4491
▁ctypes	-11.4491
▁cur.getColumnIndex(	-11.4491
▁curPin	-11.4491
▁cursor.getInt(cursor.getColumnIndex(databaseHelper.USER_TABLE_COLUMN_ID));	-11.4491
▁cx,	-11.4491
▁cycle_3(1);	-11.4491
▁c가	-11.4491
▁c언어	-11.4491
▁d,	-11.4491
▁d;	-11.4491
▁d[n][l]	-11.4491
▁daily_list	-11.4491
▁data.	-11.4491
▁data1	-11.4491
▁databaseHelper	-11.4491
▁data가	-11.4491
▁date1	-11.4491
▁date2	-11.4491
▁day)	-11.4491
▁db파일로	-11.4491
▁decimalNum	-11.4491
▁defines	-11.4491
▁def문	-11.4491
▁delete(int	-11.4491
▁deleteList(&root);	-11.4491
▁delete_node(n,	-11.4491
▁deprecated	-11.4491
▁deque	-11.4491
▁description	-11.4491
▁dest(""to.ogv"",	-11.4491
▁dest.close();	-11.4491
▁destroy-method=""clearCache"">	-11.4491
▁details	-11.4491
▁details.	-11.4491
▁df.plot(figsize=(15,	-11.4491
▁dict로	-11.4491
▁dict를	-11.4491
▁dict의	-11.4491
▁diff	-11.4491
▁different	-11.4491
▁digit	-11.4491
▁dirE	-11.4491
▁directive	-11.4491
▁discards	-11.4491
▁discountreal/100.0);	-11.4491
▁display.append(""\n--------------------------------------------\n\n"");	-11.4491
▁display.append(""\n============================================"");	-11.4491
▁display.append(msg);	-11.4491
▁display.setText(""\n	-11.4491
▁display:block;	-11.4491
▁dist_result.append(p.map(dist_cal,	-11.4491
▁distant=""<<at/input4<<""win%=""<<awin/input4<<""%""<<endl;break;	-11.4491
▁distant=""<<bt/input4<<""win%=""<<bwin/input4<<""%""<<endl;break;	-11.4491
▁distribution	-11.4491
▁django에서	-11.4491
▁dl	-11.4491
▁dll	-11.4491
▁do.	-11.4491
▁document.getElementById(""stickies"");	-11.4491
▁dot	-11.4491
▁down	-11.4491
▁download	-11.4491
▁drawer	-11.4491
▁dropdown"">	-11.4491
▁dropdown-toggle""	-11.4491
▁dst	-11.4491
▁dtype=uint8),	-11.4491
▁dump_data	-11.4491
▁e.printStackTrace();}	-11.4491
▁e1)	-11.4491
▁e;	-11.4491
▁eat()	-11.4491
▁eats..."");}	-11.4491
▁ec);	-11.4491
▁echo	-11.4491
▁eclipse	-11.4491
▁eclipse에서	-11.4491
▁edit	-11.4491
▁edittext	-11.4491
▁either	-11.4491
▁eitherStringEmpty	-11.4491
▁electron	-11.4491
▁element;	-11.4491
▁email:	-11.4491
▁email;	-11.4491
▁emailCheck;	-11.4491
▁encrypt	-11.4491
▁enctype	-11.4491
▁end='')	-11.4491
▁endfor	-11.4491
▁engine	-11.4491
▁enqueue한	-11.4491
▁enters	-11.4491
▁environment	-11.4491
▁equals	-11.4491
▁err:	-11.4491
▁event.preventDefault();	-11.4491
▁event.target.id;	-11.4491
▁every	-11.4491
▁ex2.$$$	-11.4491
▁executive	-11.4491
▁exist;	-11.4491
▁exp.add(2.0);	-11.4491
▁exp.get(i)	-11.4491
▁expect	-11.4491
▁expected	-11.4491
▁explicit	-11.4491
▁explorer	-11.4491
▁export	-11.4491
▁expr.add(opStk.pop());	-11.4491
▁expr.get(i)	-11.4491
▁express();	-11.4491
▁exr.submit(task);	-11.4491
▁extra_category_text	-11.4491
▁f,	-11.4491
▁factorial	-11.4491
▁factory	-11.4491
▁fadeIn	-11.4491
▁fahrenheit_value	-11.4491
▁failureRedirect	-11.4491
▁fault	-11.4491
▁fclose(fp);	-11.4491
▁fcstDate0;	-11.4491
▁fcstDate1;	-11.4491
▁fcstTime_06;	-11.4491
▁fcstTime_12;	-11.4491
▁fcstTime_18;	-11.4491
▁fcstTime_24;	-11.4491
▁fee){	-11.4491
▁feeds	-11.4491
▁fetch	-11.4491
▁fi	-11.4491
▁fidelity;	-11.4491
▁field:	-11.4491
▁fig	-11.4491
▁file);	-11.4491
▁file1	-11.4491
▁fileCnt	-11.4491
▁filename,	-11.4491
▁file을	-11.4491
▁findKey(list,low,high,key);	-11.4491
▁findLast(node	-11.4491
▁findViewById(R.id.drawer_layout);	-11.4491
▁find_lowest_cost_node(costs)	-11.4491
▁find가	-11.4491
▁fis	-11.4491
▁fix	-11.4491
▁flask로	-11.4491
▁flawdata	-11.4491
▁float(""inf"")	-11.4491
▁focus"",function(){	-11.4491
▁focusout"",function(){	-11.4491
▁font	-11.4491
▁font-size:13px;'>""	-11.4491
▁for(Element	-11.4491
▁for(i=0	-11.4491
▁for(i=0;i<6;i++)	-11.4491
▁for(index	-11.4491
▁for(k=0;	-11.4491
▁force	-11.4491
▁form.save(commit=False)	-11.4491
▁forward	-11.4491
▁for문의	-11.4491
▁fos	-11.4491
▁fp,	-11.4491
▁frame.setVisible(true);	-11.4491
▁frameborder=""0""	-11.4491
▁free는	-11.4491
▁frequency	-11.4491
▁friends	-11.4491
▁front	-11.4491
▁fscanf(map,	-11.4491
▁fseek(fp,	-11.4491
▁full	-11.4491
▁func(n);	-11.4491
▁function(_result){	-11.4491
▁function(event,	-11.4491
▁function(evt)	-11.4491
▁function에서	-11.4491
▁game	-11.4491
▁gameState	-11.4491
▁gamepad	-11.4491
▁gamepad,	-11.4491
▁generator	-11.4491
▁generic	-11.4491
▁get(self,	-11.4491
▁getId()	-11.4491
▁getName();	-11.4491
▁getPathname.lastIndexOf(""/"")	-11.4491
▁getPathname.substring(0,	-11.4491
▁getType()	-11.4491
▁getche();	-11.4491
▁get으로	-11.4491
▁given	-11.4491
▁global->Set(v8::String::NewFromUtf8(	-11.4491
▁google	-11.4491
▁gotoxy(20,	-11.4491
▁gotoxy(50,	-11.4491
▁gotoxy(58,	-11.4491
▁gotoxy(60,	-11.4491
▁gotoxy(Bullet[i].x,	-11.4491
▁gotoxy(px	-11.4491
▁goto의	-11.4491
▁gp.OUT)	-11.4491
▁gpio);	-11.4491
▁granted.	-11.4491
▁grid=True)	-11.4491
▁h,	-11.4491
▁hDC	-11.4491
▁hall	-11.4491
▁handle_request]	-11.4491
▁hap=0	-11.4491
▁hap=hap+a	-11.4491
▁hashCode()를	-11.4491
▁head)	-11.4491
▁heapify(data,	-11.4491
▁height:40px;	-11.4491
▁height[i];	-11.4491
▁hex	-11.4491
▁hide[c][d]	-11.4491
▁holder.checkBox.setChecked(false);	-11.4491
▁home	-11.4491
▁html을	-11.4491
▁html파일을	-11.4491
▁http://www.springframework.org/schema/beans/spring-beans.xsd	-11.4491
▁http://www.springframework.org/schema/context	-11.4491
▁https로	-11.4491
▁http로	-11.4491
▁i)->avg	-11.4491
▁i)->id,	-11.4491
▁i)->name);	-11.4491
▁i)->score[SUB]	-11.4491
▁i)->score[j]);	-11.4491
▁i<this.num;	-11.4491
▁i=0;i<data.length;i++)	-11.4491
▁iCSN이	-11.4491
▁icon	-11.4491
▁id=""sqlSession""	-11.4491
▁id='sample6_address'	-11.4491
▁idNumber;	-11.4491
▁idx++)	-11.4491
▁id의	-11.4491
▁if(Enemy[i].exist	-11.4491
▁if(PINA_REG.bit0	-11.4491
▁if(action	-11.4491
▁if(callBack	-11.4491
▁if(exp.get(i)	-11.4491
▁if(height[i]	-11.4491
▁if(j	-11.4491
▁if(mx	-11.4491
▁if(nWinner2	-11.4491
▁if(nameString	-11.4491
▁if(num	-11.4491
▁if(player!=null){	-11.4491
▁if(std::is_same<originalType,	-11.4491
▁if(team.equals(nameA))	-11.4491
▁if(titleBold	-11.4491
▁if(tmp_h	-11.4491
▁if문으로	-11.4491
▁image=photo)	-11.4491
▁imageInByte	-11.4491
▁img.item(y,	-11.4491
▁in)	-11.4491
▁in,	-11.4491
▁in.nextLine();	-11.4491
▁index():	-11.4491
▁index(request):	-11.4491
▁index);	-11.4491
▁index++){	-11.4491
▁index.html이	-11.4491
▁index.js	-11.4491
▁indicates	-11.4491
▁individual_count	-11.4491
▁infile.close()	-11.4491
▁informationurl	-11.4491
▁init	-11.4491
▁initial	-11.4491
▁initialization	-11.4491
